{"<PAD>":0,"<BOS>":1,"<EOS>":2,"!":3,"\"":4,"#":5,"$":6,"%":7,"&":8,"'":9,"(":10,")":11,"*":12,"+":13,",":14,"-":15,".":16,"/":17,"0":18,"1":19,"2":20,"3":21,"4":22,"5":23,"6":24,"7":25,"8":26,"9":27,":":28,";":29,"<":30,"=":31,">":32,"?":33,"@":34,"A":35,"B":36,"C":37,"D":38,"E":39,"F":40,"G":41,"H":42,"I":43,"J":44,"K":45,"L":46,"M":47,"N":48,"O":49,"P":50,"Q":51,"R":52,"S":53,"T":54,"U":55,"V":56,"W":57,"X":58,"Y":59,"Z":60,"[":61,"\\":62,"]":63,"^":64,"_":65,"`":66,"a":67,"b":68,"c":69,"d":70,"e":71,"f":72,"g":73,"h":74,"i":75,"j":76,"k":77,"l":78,"m":79,"n":80,"o":81,"p":82,"q":83,"r":84,"s":85,"t":86,"u":87,"v":88,"w":89,"x":90,"y":91,"z":92,"{":93,"|":94,"}":95,"~":96,"¡":97,"¢":98,"£":99,"¤":100,"¥":101,"¦":102,"§":103,"¨":104,"©":105,"ª":106,"«":107,"¬":108,"®":109,"¯":110,"°":111,"±":112,"²":113,"³":114,"´":115,"µ":116,"¶":117,"·":118,"¸":119,"¹":120,"º":121,"»":122,"¼":123,"½":124,"¾":125,"¿":126,"À":127,"Á":128,"Â":129,"Ã":130,"Ä":131,"Å":132,"Æ":133,"Ç":134,"È":135,"É":136,"Ê":137,"Ë":138,"Ì":139,"Í":140,"Î":141,"Ï":142,"Ð":143,"Ñ":144,"Ò":145,"Ó":146,"Ô":147,"Õ":148,"Ö":149,"×":150,"Ø":151,"Ù":152,"Ú":153,"Û":154,"Ü":155,"Ý":156,"Þ":157,"ß":158,"à":159,"á":160,"â":161,"ã":162,"ä":163,"å":164,"æ":165,"ç":166,"è":167,"é":168,"ê":169,"ë":170,"ì":171,"í":172,"î":173,"ï":174,"ð":175,"ñ":176,"ò":177,"ó":178,"ô":179,"õ":180,"ö":181,"÷":182,"ø":183,"ù":184,"ú":185,"û":186,"ü":187,"ý":188,"þ":189,"ÿ":190,"Ā":191,"ā":192,"Ă":193,"ă":194,"Ą":195,"ą":196,"Ć":197,"ć":198,"Ĉ":199,"ĉ":200,"Ċ":201,"ċ":202,"Č":203,"č":204,"Ď":205,"ď":206,"Đ":207,"đ":208,"Ē":209,"ē":210,"Ĕ":211,"ĕ":212,"Ė":213,"ė":214,"Ę":215,"ę":216,"Ě":217,"ě":218,"Ĝ":219,"ĝ":220,"Ğ":221,"ğ":222,"Ġ":223,"ġ":224,"Ģ":225,"ģ":226,"Ĥ":227,"ĥ":228,"Ħ":229,"ħ":230,"Ĩ":231,"ĩ":232,"Ī":233,"ī":234,"Ĭ":235,"ĭ":236,"Į":237,"į":238,"İ":239,"ı":240,"Ĳ":241,"ĳ":242,"Ĵ":243,"ĵ":244,"Ķ":245,"ķ":246,"ĸ":247,"Ĺ":248,"ĺ":249,"Ļ":250,"ļ":251,"Ľ":252,"ľ":253,"Ŀ":254,"ŀ":255,"Ł":256,"ł":257,"Ń":258,"Ġt":259,"he":260,"Ġa":261,"ou":262,"Ġs":263,"Ġm":264,"in":265,"Ġw":266,"re":267,"ha":268,"nd":269,"Ġthe":270,"Ġb":271,"is":272,"or":273,"Ġf":274,"er":275,"ll":276,"it":277,"on":278,"Ġd":279,"Ġc":280,"es":281,"en":282,"Ġn":283,"Ġl":284,"Ġy":285,"Ġth":286,"ar":287,"Ġh":288,"Ġo":289,"Ġto":290,"Ġyou":291,"Ġp":292,"hat":293,"ĠI":294,"Ġhe":295,"ve":296,"ot":297,"st":298,"Ġand":299,"ow":300,"ing":301,"an":302,"Ġof":303,"om":304,"Ġg":305,"at":306,"Ġbe":307,"se":308,"Ġmy":309,"Ġin":310,"ce":311,"Ġha":312,"le":313,"ay":314,"ld":315,"ir":316,"et":317,"ed":318,"ut":319,"Ġme":320,"im":321,"ith":322,"'s":323,"Ġnot":324,"ch":325,"Ġthat":326,"Ġis":327,"gh":328,"And":329,"Ġfor":330,"ke":331,"Ġu":332,"our":333,"Ġwe":334,"oo":335,"ill":336,"Ġe":337,"her":338,"Ġwith":339,"ent":340,"Ġit":341,"Ġyour":342,"ad":343,"ri":344,"Ġthou":345,"Ġst":346,"'d":347,"Ġk":348,"ome":349,"Ġhis":350,"ght":351,"EN":352,"ord":353,"id":354,"The":355,"as":356,"Ġre":357,"Ġhave":358,"IN":359,"ly":360,"ra":361,"Ġli":362,"Ġhim":363,"ur":364,"Ġthis":365,"al":366,"IO":367,"Ġso":368,"Ġas":369,"Ġde":370,"Ġon":371,"ore":372,"ro":373,"AR":374,"hi":375,"ould":376,"ood":377,"ck":378,"ain":379,"ver":380,"est":381,"Ġthy":382,"Ġsha":383,"ess":384,"ea":385,"Ġdo":386,"Ġwill":387,"am":388,"Ġno":389,"Ġbut":390,"us":391,"and":392,"US":393,"if":394,"Ġse":395,"ge":396,"Th":397,"Ġall":398,"ake":399,"Ġsu":400,"To":401,"Ġher":402,"ru":403,"ion":404,"th":405,"Ġan":406,"ter":407,"ard":408,"Ġlo":409,"han":410,"ell":411,"ear":412,"Ġsp":413,"Ġthee":414,"Ġour":415,"Ġfa":416,"Ġshall":417,"Ġby":418,"UC":419,"il":420,"Ġare":421,"ING":422,"ĠC":423,"rom":424,"Ġne":425,"ho":426,"Ġkn":427,"AN":428,"ĠR":429,"That":430,"Ġv":431,"ER":432,"OR":433,"ast":434,"ct":435,"ous":436,"Ġwhat":437,"ight":438,"Ġsh":439,"ul":440,"ET":441,"Ġ'":442,"ant":443,"ES":444,"Ġup":445,"sel":446,"qu":447,"But":448,"art":449,"Ġgood":450,"row":451,"ine":452,"ath":453,"Ġlord":454,"hich":455,"nt":456,"ust":457,"'ll":458,"one":459,"Ġpr":460,"Ġcom":461,"Ġat":462,"Ġman":463,"What":464,"ĠM":465,"Ġwhe":466,"ĠE":467,"KING":468,"Ġam":469,"end":470,"ic":471,"Ġcon":472,"ble":473,"ry":474,"ong":475,"ie":476,"ive":477,"Ġbl":478,"Ġfrom":479,"ven":480,"ĠG":481,"For":482,"Ġshe":483,"em":484,"Ġgo":485,"are":486,"Ġmore":487,"IC":488,"out":489,"Ġthem":490,"au":491,"Ġwas":492,"oth":493,"other":494,"He":495,"Ġsir":496,"ol":497,"Ġnow":498,"ĠL":499,"Ġhat":500,"ost":501,"Ġif":502,"LO":503,"ind":504,"Ġthere":505,"Ġwould":506,"Ġknow":507,"Ġcan":508,"ers":509,"IUS":510,"ep":511,"self":512,"ARD":513,"ather":514,"fe":515,"ond":516,"res":517,"ate":518,"Ġsay":519,"Ġhere":520,"Ġlove":521,"Ġsw":522,"Ġtheir":523,"Ġbr":524,"pp":525,"Ġor":526,"--":527,"all":528,"ĠS":529,"Ġthan":530,"Ġthen":531,"Ġking":532,"Ġus":533,"ĠO":534,"ĠB":535,"Ġthey":536,"Ġar":537,"od":538,"My":539,"Ġlet":540,"Ġun":541,"ig":542,"Ġwor":543,"ure":544,"ink":545,"ĠH":546,"ort":547,"hy":548,"ĠV":549,"ame":550,"fore":551,"As":552,"Ġmay":553,"el":554,"Ġqu":555,"Ġcome":556,"ook":557,"Whe":558,"ish":559,"LI":560,"Ġwell":561,"KE":562,"ves":563,"Ġj":564,"Ġone":565,"Ġhath":566,"irst":567,"You":568,"Ġmake":569,"reat":570,"ak":571,"gain":572,"Ġmust":573,"ound":574,"ng":575,"Ġgra":576,"Ġwere":577,"Ġho":578,"ci":579,"Ġsee":580,"Ġlike":581,"ue":582,"eak":583,"TIO":584,"Ġshould":585,"ity":586,"Ġpro":587,"ĠP":588,"Ġsa":589,"Ġmad":590,"um":591,"Ġpl":592,"Ġfather":593,"RO":594,"AU":595,"Ġhad":596,"Ġdid":597,"pe":598,"ime":599,"Ġupon":600,"ice":601,"ON":602,"Ġtoo":603,"ence":604,"ĠW":605,"ward":606,"ist":607,"Ġdeath":608,"own":609,"man":610,"ose":611,"Ġen":612,"un":613,"IS":614,"ful":615,"nce":616,"Ġr":617,"Ġpo":618,"Ġspeak":619,"de":620,"entle":621,"io":622,"Ġout":623,"pt":624,"Ġwhich":625,"ICH":626,"Ġfri":627,"OL":628,"DU":629,"Ġagain":630,"DUKE":631,"Ġhow":632,"EL":633,"ick":634,"ĠA":635,"Ġtru":636,"Ġheart":637,"Ġyet":638,"Ġhand":639,"CA":640,"Thou":641,"very":642,"ICHARD":643,"ENTIO":644,"With":645,"ign":646,"Ġsome":647,"ance":648,"Ġwho":649,"Which":650,"If":651,"Ġwhen":652,"ies":653,"Ġmar":654,"ire":655,"Ġmine":656,"Ġhon":657,"har":658,"orn":659,"Ġoff":660,"ince":661,"INC":662,"In":663,"ack":664,"ĠY":665,"Ġson":666,"Ġdis":667,"Ġal":668,"'t":669,"We":670,"uch":671,"wn":672,"Ġhea":673,"First":674,"oy":675,"Ġtime":676,"Ġhear":677,"AB":678,"ec":679,"Ġsuch":680,"ness":681,"LA":682,"Ġbrother":683,"Of":684,"Ġblood":685,"ither":686,"Ġab":687,"UE":688,"Why":689,"Ġthese":690,"No":691,"Ġgive":692,"Ġfo":693,"Ġday":694,"ĠII":695,"Ġear":696,"ĠRICHARD":697,"TER":698,"Ġro":699,"ise":700,"Ġex":701,"Ġlife":702,"This":703,"eet":704,"Ġtell":705,"So":706,"Ġlook":707,"Ġthink":708,"UCH":709,"oul":710,"Ġword":711,"Ġey":712,"Ġwhere":713,"ag":714,"age":715,"een":716,"ther":717,"GLO":718,"Ġtake":719,"UCES":720,"Ġfriend":721,"GLOUCES":722,"GLOUCESTER":723,"ef":724,"erv":725,"ady":726,"rown":727,"Ġdes":728,"ings":729,"ave":730,"not":731,"Ġgentle":732,"urse":733,"How":734,"RY":735,"Ġri":736,"ase":737,"QUE":738,"way":739,"INCENTIO":740,"QUEEN":741,"Ġlea":742,"tis":743,"ĠOF":744,"Ġart":745,"Ġmost":746,"Where":747,"Ġhonour":748,"LAN":749,"Ġmuch":750,"Ġsl":751,"Ġwar":752,"Ġfl":753,"urn":754,"Ġmade":755,"ment":756,"Now":757,"Ġhast":758,"Ġtw":759,"Ġfear":760,"ĠT":761,"Ġbet":762,"ENRY":763,"aught":764,"Is":765,"LE":766,"ber":767,"ff":768,"ĠGod":769,"ough":770,"ved":771,"Ġbre":772,"cc":773,"ower":774,"Ġnever":775,"ĠVINCENTIO":776,"Be":777,"ap":778,"igh":779,"ĠK":780,"Ġgreat":781,"Ġfair":782,"Who":783,"ee":784,"tle":785,"Ġmen":786,"orrow":787,"Ġcou":788,"Ġnew":789,"ĠRome":790,"aster":791,"uke":792,"iz":793,"old":794,"ORK":795,"Ġpart":796,"ation":797,"INIUS":798,"ss":799,"ree":800,"ide":801,"Or":802,"Ġcall":803,"ple":804,"Ġany":805,"Ġheaven":806,"Ġad":807,"Ġcomm":808,"It":809,"Your":810,"Ġstand":811,"Ġcannot":812,"Ġtrue":813,"DW":814,"Ġname":815,"Ġbeen":816,"ears":817,"DWARD":818,"Ġcl":819,"Ġpre":820,"Ġsweet":821,",--":822,"Ġdoth":823,"Ġpray":824,"hing":825,"PET":826,"UM":827,"Ġnoble":828,"LUC":829,"MEN":830,"TH":831,"Ġown":832,"Ġple":833,"ass":834,"ĠD":835,"ouse":836,"Ġper":837,"Ay":838,"Come":839,"ull":840,"There":841,"Ġwr":842,"Ġdone":843,"ife":844,"aw":845,"Ġtr":846,"Ġway":847,"Ġother":848,"Ġhead":849,"Ġmean":850,"li":851,"red":852,"When":853,"dward":854,"Ġnor":855,"EO":856,"MEO":857,"Ġsc":858,"Ġsoul":859,"Ġpres":860,"ROMEO":861,"ace":862,"ving":863,"Ġnight":864,"Ġbear":865,"ENIUS":866,"aint":867,"ĠCl":868,"Ġworld":869,"MENENIUS":870,"ger":871,"Ġbefore":872,"ause":873,"Ġboth":874,"Ġqueen":875,"per":876,"Then":877,"aughter":878,"RUCH":879,"ock":880,"Ġchi":881,"Here":882,"PETRUCH":883,"PETRUCHIO":884,"OM":885,"able":886,"Ġvery":887,"Ġdead":888,"TES":889,"By":890,"Ġra":891,"ite":892,"Than":893,"the":894,"Ġke":895,"ab":896,"les":897,"ĠF":898,"Ġdown":899,"to":900,"Ġapp":901,"Ġmyself":902,"Ġcont":903,"GR":904,"HA":905,"Ġwh":906,"Ġrem":907,"ĠLord":908,"Ġarm":909,"Ġthus":910,"IOLAN":911,"ilt":912,"ORIOLAN":913,"ORIOLANUS":914,"CORIOLANUS":915,"Sec":916,"Ġleave":917,"Second":918,"Ġbeing":919,"ction":920,"ĠEdward":921,"Nor":922,"sw":923,"Ġunt":924,"ress":925,"Ġgrace":926,"less":927,"Ġbeg":928,"Ġeyes":929,"BA":930,"land":931,"Ġmother":932,"ran":933,"Ġma":934,"Ġold":935,"Ġim":936,"INA":937,"ĠEDWARD":938,"itiz":939,"itizen":940,"ps":941,"Ġlong":942,"Ġever":943,"ĠMar":944,"Ġlive":945,"Ġchild":946,"Let":947,"me":948,"Ġwife":949,"She":950,"Ġaway":951,"Ġrep":952,"ĠIII":953,"Ġwom":954,"Ġpoor":955,"Ġfriends":956,"come":957,"for":958,"wick":959,"Ġaf":960,"Ġmight":961,"nder":962,"Ġstay":963,"eace":964,"ks":965,"oud":966,"Ġdie":967,"atch":968,"led":969,"ĠJ":970,"Ġru":971,"arwick":972,"Ġcomes":973,"Ġcons":974,"Ġcrown":975,"ows":976,"Ġmany":977,"Ġpe":978,"Tis":979,"hall":980,"ison":981,"Ġle":982,"ĠYORK":983,"lo":984,"uck":985,"iss":986,"Ġhouse":987,"Ġhar":988,"Ġthought":989,"Ġrest":990,"ISAB":991,"ELLA":992,"ISABELLA":993,"ian":994,"erc":995,"Ġcour":996,"RAN":997,"Ġent":998,"Ġlie":999,"che":1000,"Ġset":1001,"JU":1002,"well":1003,"ors":1004,"atter":1005,"LIET":1006,"ONTES":1007,"ĠWarwick":1008,"LEONTES":1009,"JULIET":1010,"Nay":1011,"int":1012,"ittle":1013,"Ġdaughter":1014,"Ġgone":1015,"Ġbetter":1016,"MI":1017,"rant":1018,"ought":1019,"Ġprince":1020,"DY":1021,"His":1022,"Ġtong":1023,"Ġwit":1024,"Ġnothing":1025,"CE":1026,"VOL":1027,"ENCE":1028,"LADY":1029,"BR":1030,"TA":1031,"cl":1032,"ied":1033,"Ġkeep":1034,"Go":1035,"Well":1036,"ces":1037,"ious":1038,"os":1039,"Ġsle":1040,"Ġres":1041,"hard":1042,"Ġnews":1043,"SIC":1044,"ft":1045,"ier":1046,"Ġtri":1047,"Ġmo":1048,"ret":1049,"ont":1050,"Ġthose":1051,"Ġgri":1052,"ool":1053,"une":1054,"SICINIUS":1055,"Not":1056,"Ġlittle":1057,"Ġlords":1058,"Ġagainst":1059,"ford":1060,"Ġbest":1061,"Ġhour":1062,"Ġhence":1063,"ardon":1064,"akes":1065,"lse":1066,"Ġacc":1067,"sed":1068,"Ġface":1069,"ult":1070,"Ġfoll":1071,"On":1072,"ew":1073,"ud":1074,"ark":1075,"Ġyoung":1076,"Ġend":1077,"ork":1078,"Ġthing":1079,"Ġstill":1080,"Ġkind":1081,"ield":1082,"ST":1083,"Ġpri":1084,"Ġpur":1085,"alk":1086,"Thy":1087,"Ġcomp":1088,"LUCIO":1089,"ale":1090,"ins":1091,"ert":1092,"Ġput":1093,"Ġpower":1094,"ĠIV":1095,"ichard":1096,"Ġtwo":1097,"Ġcha":1098,"Ġhimself":1099,"Pro":1100,"iness":1101,"Ġfirst":1102,"Ġpeace":1103,"Ġgu":1104,"Ġelse":1105,"ried":1106,"Ġdear":1107,"cious":1108,"Sir":1109,"ail":1110,"ty":1111,"ason":1112,"hile":1113,"Ġsub":1114,"Ġunto":1115,"ile":1116,"ray":1117,"Ġtill":1118,"Ġsm":1119,"uty":1120,"RI":1121,"ZAB":1122,"ect":1123,"Ġtra":1124,"Ġbid":1125,"Ġback":1126,"Ġdre":1127,"Ġhus":1128,"ETH":1129,"ĠELI":1130,"Ġtherefore":1131,"Ġearth":1132,"Ġwords":1133,"Ġcount":1134,"ZABETH":1135,"ĠELIZABETH":1136,"Have":1137,"band":1138,"ius":1139,"men":1140,"ople":1141,"yal":1142,"Ġfind":1143,"Ġcould":1144,"Ġtongue":1145,"orse":1146,"Ġlady":1147,"Ġthine":1148,"Ġneed":1149,"ĠYork":1150,"HENRY":1151,"get":1152,"tw":1153,"Ġtre":1154,"Ġfell":1155,"enry":1156,"Ġhigh":1157,"Ġforth":1158,"Ġhope":1159,"MER":1160,"St":1161,"lp":1162,"Ġhome":1163,"vere":1164,"eth":1165,"Ġseem":1166,"eech":1167,"ĠRomeo":1168,"Ġhusband":1169,"CL":1170,"Ġduke":1171,"Ġright":1172,"GE":1173,"WAR":1174,"WIC":1175,"fort":1176,"ĠWhat":1177,"rer":1178,"Ġban":1179,"uth":1180,"Ġthough":1181,"ĠVI":1182,"WARWIC":1183,"WARWICK":1184,"UT":1185,"ach":1186,"ix":1187,"Ġmind":1188,"Ġbra":1189,"ister":1190,"Ġche":1191,"Ġchar":1192,"hip":1193,"ĠHENRY":1194,"Ġpeople":1195,"Nurse":1196,"ds":1197,"ged":1198,"ĠCitizen":1199,"ren":1200,"They":1201,"ĠHenry":1202,"HAM":1203,"IAN":1204,"LET":1205,"PU":1206,"eed":1207,"Ġbri":1208,"Ġchan":1209,"Ġlaw":1210,"ĠRichard":1211,"Ġshow":1212,"Ġconf":1213,"Ġhands":1214,"PULET":1215,"EY":1216,"be":1217,"Ġmaster":1218,"Ġwhy":1219,"Ġco":1220,"Ġcause":1221,"Ġgl":1222,"Ġonce":1223,"Ġsaid":1224,"Ġimp":1225,"Good":1226,"MIO":1227,"Shall":1228,"Ġbod":1229,"Ġnone":1230,"ousin":1231,"Ġjoy":1232,"ervant":1233,"All":1234,"bt":1235,"Ġfort":1236,"Ġbring":1237,"Yet":1238,"Ġdou":1239,"ates":1240,"Ġevery":1241,"UCKING":1242,"BRUT":1243,"UCKINGHAM":1244,"BRUTUS":1245,"BRO":1246,"BUCKINGHAM":1247,"From":1248,"TRAN":1249,"iet":1250,"Ġmist":1251,"Ġpass":1252,"ird":1253,"Ġlight":1254,"INGBRO":1255,"ESS":1256,"ĠBOL":1257,"TRANIO":1258,"INGBROKE":1259,"ĠBOLINGBROKE":1260,"Do":1261,"Will":1262,"lt":1263,"vost":1264,"Ġwo":1265,"Ġnat":1266,"Ġthr":1267,"Ġroyal":1268,"swer":1269,"PER":1270,"TIS":1271,"cle":1272,"Ġtears":1273,"its":1274,"Ġcame":1275,"ary":1276,"ĠMAR":1277,"Ġwhose":1278,"Ġplease":1279,"lf":1280,"vy":1281,"ory":1282,"Ġpardon":1283,"roke":1284,"ĠAn":1285,"Cl":1286,"GAR":1287,"NE":1288,"pose":1289,"Ġbes":1290,"Ġboy":1291,"Ġfull":1292,"arry":1293,"Ġheard":1294,"Ġhapp":1295,"Ġdev":1296,"Ġjust":1297,"Ġwrong":1298,"Ġpresent":1299,"ĠMARGAR":1300,"ĠMARGARET":1301,"ATH":1302,"eel":1303,"Ġsince":1304,"Ġmis":1305,"ens":1306,"Ġland":1307,"Ġlast":1308,"Ġere":1309,"Ġstate":1310,"Ġplace":1311,"MIL":1312,"bl":1313,"sand":1314,"Ġmeet":1315,"Ġunder":1316,"Ġkill":1317,"Ġafter":1318,"HOR":1319,"cent":1320,"Ġsorrow":1321,"ition":1322,"Ġcare":1323,"Ġthousand":1324,"esty":1325,"ANGE":1326,"ORD":1327,"Ġhold":1328,"GRE":1329,"ANGELO":1330,"CU":1331,"Our":1332,"Ġhelp":1333,"ARINA":1334,"arence":1335,"Ġwhom":1336,"Ġfollow":1337,"KATH":1338,"day":1339,"Ġfar":1340,"Ġless":1341,"Ġhither":1342,"ceive":1343,"irt":1344,"Ġweep":1345,"Ġshame":1346,"selves":1347,"cius":1348,"Ġenem":1349,"Ġabout":1350,"Ġeye":1351,"KATHARINA":1352,"iol":1353,"Ġfal":1354,"Ġfool":1355,"ons":1356,"Ġpat":1357,"urde":1358,"Ġsun":1359,"Ġanswer":1360,"air":1361,"Ġch":1362,"asure":1363,"Ġfall":1364,"Ġmaid":1365,"LUS":1366,"Un":1367,"Up":1368,"ount":1369,"Ġbus":1370,"Ġcousin":1371,"thy":1372,"ESCA":1373,"Ġhate":1374,"Ġgracious":1375,"Ġgentleman":1376,"ĠKing":1377,"Ġgrief":1378,"ESCALUS":1379,"An":1380,"ject":1381,"ove":1382,"Ġmakes":1383,"Ġinto":1384,"imes":1385,"Ġstri":1386,"Hath":1387,"iv":1388,"ild":1389,"Ġstre":1390,"ĠEng":1391,"Ġwoman":1392,"DUCH":1393,"Ġturn":1394,"Ġhum":1395,"Ġbel":1396,"alt":1397,"Ġdost":1398,"Ġcomfort":1399,"ices":1400,"Ġcoun":1401,"ĠDuke":1402,"Ġcourt":1403,"Ġsleep":1404,"urderer":1405,"DUCHESS":1406,"Lord":1407,"pher":1408,"Ġtalk":1409,"itor":1410,"Ġover":1411,"Ġbody":1412,"morrow":1413,"Ġwilt":1414,"Ġbu":1415,"Ġgr":1416,"ute":1417,"gelo":1418,"deed":1419,"ĠMarcius":1420,"IA":1421,"ience":1422,"Ġi":1423,"ised":1424,"Ġbed":1425,"Ġfault":1426,"Ġatt":1427,"ieve":1428,"Ġprove":1429,"Ġplay":1430,"CAMIL":1431,"ĠClarence":1432,"CAMILLO":1433,"God":1434,"ere":1435,"ily":1436,"Ġsound":1437,"Ġdra":1438,"ans":1439,"omet":1440,"Ġinst":1441,"Ġwel":1442,"ade":1443,"Ġret":1444,"Ġdeed":1445,"Ġthank":1446,"TEN":1447,"Ġser":1448,"Ġbo":1449,"Ġfight":1450,"Ġindeed":1451,"illain":1452,"hold":1453,"Ġvo":1454,"Ġsword":1455,"ĠAngelo":1456,"HORTEN":1457,"Ġfalse":1458,"HORTENS":1459,"FRI":1460,"Sh":1461,"Ġuse":1462,"Ġeven":1463,"Ġsovere":1464,"Ġanother":1465,"Ġgrave":1466,"Ġadv":1467,"Provost":1468,"Ġfellow":1469,"Upon":1470,"HORTENSIO":1471,"FRIAR":1472,",'":1473,"PTIS":1474,"eal":1475,"Ġcur":1476,"Ġhas":1477,"Ġem":1478,"ury":1479,"pect":1480,"BAPTIS":1481,"Ġbanish":1482,"Ġfortune":1483,"BAPTISTA":1484,"CUS":1485,"COM":1486,"TOL":1487,"YCUS":1488,"pl":1489,"pen":1490,"ouch":1491,"Ġmerc":1492,"Ġmatter":1493,"Ġwant":1494,"Ġreven":1495,"Ġass":1496,"Ġsend":1497,"Ġprison":1498,"fect":1499,"AUTOL":1500,"Ġrather":1501,"Ġcountry":1502,"Ġdoubt":1503,"COMINIUS":1504,"AUTOLYCUS":1505,".'":1506,"Are":1507,"Even":1508,"More":1509,"Ġwish":1510,"Ġyears":1511,"Ġreason":1512,"Ġlies":1513,"Ġonly":1514,"ARENCE":1515,"Third":1516,"Ġvirt":1517,"Ġtruth":1518,"Would":1519,"ior":1520,"ms":1521,"of":1522,"rance":1523,"ĠBut":1524,"Ġdan":1525,"Ġpers":1526,"any":1527,"Ġbreath":1528,"Ġarms":1529,"Ġdream":1530,"CLARENCE":1531,"pherd":1532,"BEN":1533,"MAR":1534,"NOR":1535,"dd":1536,"der":1537,"Ġsent":1538,"ener":1539,"Ġgi":1540,"Ġstra":1541,"Ġshalt":1542,"Ġdisc":1543,"VOLIO":1544,"Clown":1545,"Ġbusiness":1546,"BENVOLIO":1547,"Al":1548,"At":1549,"PRO":1550,"SPER":1551,"by":1552,"hed":1553,"Ġsen":1554,"Ġprom":1555,"Ġholy":1556,"Ġenough":1557,"erving":1558,"Ġcommand":1559,"UMIO":1560,"GRUMIO":1561,"PROSPER":1562,"PROSPERO":1563,"ia":1564,"ken":1565,"Ġsea":1566,"Ġwind":1567,"itt":1568,"Ġcra":1569,"Ġlay":1570,"ars":1571,"Ġpity":1572,"ator":1573,"Ġbea":1574,"Ġhang":1575,"Ġstran":1576,"Ġsold":1577,"Ġspir":1578,"Ġfare":1579,"Ġproud":1580,"ĠMurderer":1581,"Ġswear":1582,"Ġcontent":1583,"MERCU":1584,"MERCUTIO":1585,"ike":1586,"Ġdare":1587,"eter":1588,"Ġlives":1589,"Ġdep":1590,"Ġsec":1591,"Ġvillain":1592,"gainst":1593,"ĠKate":1594,"LUCENTIO":1595,"Ġremem":1596,"Ġnature":1597,"Ġwelcome":1598,"POM":1599,"Tw":1600,"com":1601,"unt":1602,"Ġtend":1603,"ham":1604,"Ġfree":1605,"Ġgre":1606,"Ġget":1607,"Ġint":1608,"Ġwithin":1609,"Ġkiss":1610,"ester":1611,"ĠCome":1612,"Ġgods":1613,"Ġsaw":1614,"Ġmadam":1615,"LAND":1616,"Ġhappy":1617,"Ġsovereign":1618,"POMP":1619,"LINA":1620,"PAU":1621,"apt":1622,"Ġserv":1623,"Ġsister":1624,"Ġsomet":1625,"hal":1626,"Ġfoul":1627,"Ġcity":1628,"vers":1629,"Were":1630,"Ġbeseech":1631,"PAULINA":1632,"YORK":1633,"ient":1634,"use":1635,"ery":1636,"Ġden":1637,"Ġyield":1638,"Ġthree":1639,"Ġoath":1640,"Ġyours":1641,"onder":1642,"ague":1643,"Ġbreak":1644,"Ġmeans":1645,"Ġsubject":1646,"gether":1647,"GREMIO":1648,"POMPEY":1649,"NIA":1650,"OLI":1651,"POLI":1652,"XEN":1653,"balt":1654,"ybalt":1655,"ĠNor":1656,"Ġaw":1657,"Ġmer":1658,"Ġwhile":1659,"Ġborn":1660,"Ġthings":1661,"Ġhorse":1662,"anc":1663,"usic":1664,"ANT":1665,"Ġbloody":1666,"Ġlooks":1667,"eft":1668,"UMNIA":1669,"like":1670,"ches":1671,"VOLUMNIA":1672,"POLIXEN":1673,"POLIXENES":1674,"GON":1675,"Her":1676,"rong":1677,"up":1678,"ues":1679,"Ġtem":1680,"Ġwin":1681,"Ġwound":1682,"Ġfire":1683,"enger":1684,"Ġyourself":1685,"Ġsupp":1686,"Ġspo":1687,"Ġfaith":1688,"INGS":1689,"ĠServing":1690,"Ġmaj":1691,"STINGS":1692,"Ġtraitor":1693,"centio":1694,"ĠServingman":1695,"RENCE":1696,"Say":1697,"bs":1698,"broke":1699,"rem":1700,"Ġdru":1701,"Ġlam":1702,"essenger":1703,"ĠLAU":1704,"Ġmark":1705,"Ġcommon":1706,"HASTINGS":1707,"Ġchildren":1708,"ertain":1709,"Ġmistress":1710,"ĠLAURENCE":1711,"BY":1712,"BER":1713,"Ġcond":1714,"Ġbeat":1715,"Ġrequ":1716,"Ġdef":1717,"Ġval":1718,"Ġuncle":1719,"Therefore":1720,"form":1721,"Ġmajesty":1722,"CLI":1723,"FF":1724,"Look":1725,"Was":1726,"Ġaff":1727,"Ġsin":1728,"Ġmet":1729,"Ġlate":1730,"Ġleft":1731,"Ġtold":1732,"Ġsoon":1733,"Ġseen":1734,"Ġsave":1735,"Ġdays":1736,"UMBER":1737,"THUMBER":1738,"Ġwoe":1739,"ĠEngland":1740,"NORTHUMBER":1741,"Ġtender":1742,"CLIFF":1743,"NORTHUMBERLAND":1744,"ID":1745,"Take":1746,"bed":1747,"ever":1748,"ring":1749,"ten":1750,"Ġsight":1751,"Ġmon":1752,"Ġgener":1753,"ides":1754,"idow":1755,"Ġdoes":1756,"Though":1757,"Ġreturn":1758,"Ġmercy":1759,"Ġfarewell":1760,"ac":1761,"dom":1762,"mp":1763,"ĠAN":1764,"hes":1765,"Ġsit":1766,"Ġsad":1767,"rel":1768,"Ġdeep":1769,"ters":1770,"Ġgold":1771,"unes":1772,"Ġmarry":1773,"Ġheavy":1774,"Ġfoot":1775,"Ġwarrant":1776,"ĠJul":1777,"Ġpurpose":1778,"Ġthrough":1779,"Ġdanger":1780,"ĠANNE":1781,"Ah":1782,"Did":1783,"Give":1784,"PR":1785,"aim":1786,"ict":1787,"mer":1788,"so":1789,"und":1790,"vent":1791,"Ġill":1792,"Ġcho":1793,"Ġcold":1794,"Ġnurse":1795,"Ġtogether":1796,"Ġgrow":1797,"ours":1798,"ifford":1799,"Ġsure":1800,"earn":1801,"CAPULET":1802,"ignior":1803,"INCE":1804,"Ġdeser":1805,"ments":1806,"PRINCE":1807,"az":1808,"aid":1809,"ca":1810,"oint":1811,"Ġtimes":1812,"oriol":1813,"ingbroke":1814,"ceed":1815,"Ġwithout":1816,"enty":1817,"Ġask":1818,"ross":1819,"ush":1820,"Ġlost":1821,"arewell":1822,"olingbroke":1823,"Ġpluck":1824,"Ġreport":1825,"Ġliege":1826,"Ġbelieve":1827,"Ġspirit":1828,"ling":1829,"sh":1830,"xt":1831,"Ġair":1832,"Ġage":1833,"outh":1834,"Ġwat":1835,"Ġheir":1836,"ets":1837,"ains":1838,"Ġthyself":1839,"ift":1840,"Ġloss":1841,"ĠMont":1842,"Ġsays":1843,"ĠBolingbroke":1844,"Whose":1845,"One":1846,"Ġstrange":1847,"ALO":1848,"Had":1849,"ial":1850,"no":1851,"ner":1852,"Ġbat":1853,"Ġcry":1854,"Ġlearn":1855,"ced":1856,"Ġsuff":1857,"aking":1858,"Ġears":1859,"Ġhaste":1860,"ĠClifford":1861,"Ġentreat":1862,"Ġdevil":1863,"Ġground":1864,"Should":1865,"Ġperson":1866,"ĠJuliet":1867,"Like":1868,"Wh":1869,"ges":1870,"night":1871,"Ġmur":1872,"ined":1873,"Ġfly":1874,"Ġtoward":1875,"Ġpast":1876,"oman":1877,"let":1878,"Ġfast":1879,"Ġvis":1880,"aud":1881,"ĠLu":1882,"Ġpoint":1883,"Ġfriar":1884,"Ġdisp":1885,"Ġslain":1886,"Ġbetw":1887,"ĠFrance":1888,"ixt":1889,"Ġjustice":1890,"Ġstraight":1891,"Ġremember":1892,"APULET":1893,"FL":1894,"FID":1895,"IZ":1896,"May":1897,"Some":1898,"Ġord":1899,"Ġsil":1900,"ina":1901,"Ġbold":1902,"Ġcurse":1903,"Ġnear":1904,"ution":1905,"Ġstrong":1906,"These":1907,"ĠCAPULET":1908,"ORIZ":1909,"Ġworthy":1910,"Ġquick":1911,"AUFID":1912,"entleman":1913,"Ġtrust":1914,"Ġalone":1915,"Ġdesire":1916,"Ġinstru":1917,"Ġbeauty":1918,"Ġservice":1919,"FLORIZ":1920,"AUFIDIUS":1921,"FLORIZEL":1922,"Can":1923,"SE":1924,"Tell":1925,"VER":1926,"gs":1927,"ning":1928,"ship":1929,"with":1930,"Ġtouch":1931,"Ġfound":1932,"ithe":1933,"ĠIs":1934,"adam":1935,"Ġready":1936,"ION":1937,"Ġbrought":1938,"ured":1939,"Ġposs":1940,"ĠTybalt":1941,"Ġrun":1942,"Ġhard":1943,"Ġenemy":1944,"Ġrevenge":1945,"Ġgeneral":1946,"audio":1947,"!'":1948,"Ha":1949,"ible":1950,"vo":1951,"ĠHere":1952,"Ġwoo":1953,"Ġduty":1954,"enator":1955,"Ġgrant":1956,"Ġinf":1957,"cept":1958,"Ġitself":1959,"amill":1960,"Ġlose":1961,"aunt":1962,"Ġknows":1963,"Ġcanst":1964,"ĠSenator":1965,"inks":1966,"umber":1967,"Ġmarried":1968,"Ġthoughts":1969,"Ġcharge":1970,"Against":1971,"Bec":1972,"CIUS":1973,"RICHARD":1974,"Sp":1975,"cester":1976,"eep":1977,"gu":1978,"lou":1979,"sue":1980,"ua":1981,"ĠYou":1982,"Ġmorn":1983,"Ġwear":1984,"riage":1985,"Ġread":1986,"Ġdeli":1987,"Ġspeed":1988,"Ġquar":1989,"Ġprof":1990,"Ġtwenty":1991,"Ġstands":1992,"BAST":1993,"Shepherd":1994,"ched":1995,"Ġhours":1996,"Ġconfess":1997,"Ġstreng":1998,"SEBAST":1999,"ithee":2000,"SEBASTIAN":2001,"OW":2002,"cess":2003,"ĠN":2004,"Ġmock":2005,"Ġfur":2006,"Ġfore":2007,"Ġfield":2008,"ones":2009,"Ġdiv":2010,"Ġcar":2011,"Ġyouth":2012,"Ġpost":2013,"Ġhell":2014,"ingham":2015,"Ġhalf":2016,"oop":2017,"Thus":2018,"ĠRi":2019,"olk":2020,"fection":2021,"ĠHast":2022,"Ġjud":2023,"ump":2024,"Ġexec":2025,"Ġfearful":2026,"Ġcounsel":2027,"amillo":2028,"BION":2029,"Com":2030,"DEL":2031,"Till":2032,"most":2033,"pare":2034,"Ġter":2035,"Ġmin":2036,"Ġwret":2037,"Ġbos":2038,"Ġpar":2039,"Ġbehold":2040,"Ġinc":2041,"Ġeach":2042,"ads":2043,"Ġrec":2044,"Ġdel":2045,"ĠCoriol":2046,"ols":2047,"Ġwork":2048,"ortal":2049,"Ġhearts":2050,"Ġmarriage":2051,"Ġdesp":2052,"ĠClaudio":2053,"itizens":2054,"uckingham":2055,"Ġresol":2056,"MARCIUS":2057,"ĠMontague":2058,"loucester":2059,"BIONDEL":2060,"Ġbosom":2061,"BIONDELLO":2062,"Away":2063,"MON":2064,"Madam":2065,"bly":2066,"folk":2067,"iers":2068,"now":2069,"ĠThe":2070,"Ġtit":2071,"Ġten":2072,"Ġtale":2073,"Ġbound":2074,"Ġdam":2075,"Ġcut":2076,"ench":2077,"Ġye":2078,"Ġopen":2079,"rah":2080,"alm":2081,"ĠCap":2082,"Ġshort":2083,"Ġknown":2084,"ĠBuckingham":2085,"Ġseek":2086,"Ġharm":2087,"Ġcompany":2088,"Ġguilt":2089,"Ġhighness":2090,"Ġstrike":2091,"Ġattend":2092,"Ġserve":2093,"Ġmurder":2094,"ĠHastings":2095,"Farewell":2096,"HER":2097,"OP":2098,"chan":2099,"hood":2100,"Ġve":2101,"ĠHe":2102,"ĠAU":2103,"Ġag":2104,"Ġsat":2105,"Ġside":2106,"Ġwhi":2107,"Ġwatch":2108,"rest":2109,"ished":2110,"Ġfeel":2111,"Ġdish":2112,"Ġdist":2113,"ents":2114,"ander":2115,"Ġsuit":2116,"Ġloving":2117,"ONIO":2118,"Ġhonest":2119,"Ġheavens":2120,"Ġtrib":2121,"MERLE":2122,"Ġdraw":2123,"Ġvoices":2124,"Ġsomething":2125,"ANTONIO":2126,"Ġstrength":2127,"ĠAUMERLE":2128,"Marry":2129,"Pray":2130,"See":2131,"ZALO":2132,"fid":2133,"ging":2134,"Ġact":2135,"Ġsake":2136,"Ġwast":2137,"Ġwonder":2138,"Ġwidow":2139,"Ġbit":2140,"Ġcor":2141,"Ġsto":2142,"Ġstir":2143,"ĠGentleman":2144,"ĠGloucester":2145,"ĠLanc":2146,"Ġdidst":2147,"Ġgentlemen":2148,"Ġcloud":2149,"Ġwomen":2150,"ethinks":2151,"Ġenemies":2152,"GONZALO":2153,"ĠLancaster":2154,"Unt":2155,"ives":2156,"su":2157,"Ġsing":2158,"Ġmusic":2159,"rew":2160,"Ġbreat":2161,"Ġdr":2162,"Ġpra":2163,"Ġpie":2164,"Ġpale":2165,"Ġgates":2166,"oose":2167,"race":2168,"ils":2169,"ĠCamillo":2170,"Ġnext":2171,"Ġknew":2172,"Ġcoming":2173,"Ġthanks":2174,"Ġclose":2175,"Ġpleasure":2176,"Ġsouls":2177,"ianca":2178,"Ġcourse":2179,"Ġenter":2180,"Ġwithal":2181,"Ġbrave":2182,"Ġchee":2183,"ceived":2184,"Ġtitle":2185,"DIO":2186,"fter":2187,"ne":2188,"vour":2189,"you":2190,"Ġty":2191,"Ġwa":2192,"Ġbur":2193,"Ġfit":2194,"oward":2195,"Ġgar":2196,"Ġbecome":2197,"etch":2198,"etru":2199,"Ġforg":2200,"Ġweak":2201,"Ġeither":2202,"Ġlips":2203,"rust":2204,"els":2205,"Ġjest":2206,"Ġplain":2207,"AUDIO":2208,"Ġabs":2209,"Ġpret":2210,"claim":2211,"Ġgrie":2212,"CLAUDIO":2213,"Ġchange":2214,"MIONE":2215,"ĠNorfolk":2216,"CLIFFORD":2217,"Ġsuffer":2218,"Ġdeliver":2219,"HERMIONE":2220,"DA":2221,"EDWARD":2222,"LORD":2223,"Most":2224,"cher":2225,"kes":2226,"ses":2227,"ufid":2228,"ĠTh":2229,"Ġsk":2230,"Ġsame":2231,"Ġsick":2232,"Ġsign":2233,"Ġwis":2234,"Ġwall":2235,"ready":2236,"isf":2237,"Ġcast":2238,"irth":2239,"chio":2240,"Ġforb":2241,"Ġforget":2242,"oof":2243,"ries":2244,"Ġreg":2245,"urp":2246,"east":2247,"Ġven":2248,"Ġthemselves":2249,"ĠBianca":2250,"Ġworse":2251,"ĠPom":2252,"Ġtook":2253,"Ġpoison":2254,"Ġalong":2255,"Ġrich":2256,"Ġbreast":2257,"ranio":2258,"Ġconsul":2259,"RANDA":2260,"MIRANDA":2261,"twas":2262,"twere":2263,"Ġcheer":2264,"Ġpatience":2265,"Ġmerry":2266,"Ġorder":2267,"etruchio":2268,"ufidius":2269,"HN":2270,"Messenger":2271,"OHN":2272,"SA":2273,"SON":2274,"Servant":2275,"lst":2276,"oin":2277,"ting":2278,"Ġmouth":2279,"Ġwed":2280,"Ġbad":2281,"Ġbook":2282,"Ġfour":2283,"Ġdu":2284,"ĠIf":2285,"Ġgave":2286,"chm":2287,"Ġissue":2288,"ash":2289,"Ġliber":2290,"vern":2291,"Ġself":2292,"ions":2293,"rows":2294,"ally":2295,"Ġoffice":2296,"Ġalready":2297,"Being":2298,"Ġmove":2299,"Ġvirtue":2300,"Ġgiven":2301,"Ġbattle":2302,"ĠHereford":2303,"Ġmorning":2304,"Ġfurther":2305,"Make":2306,"Since":2307,"mber":2308,"nk":2309,"pes":2310,"rist":2311,"she":2312,"uous":2313,"used":2314,"Ġta":2315,"Ġac":2316,"oun":2317,"Ġwise":2318,"Ġburn":2319,"orge":2320,"Ġfrown":2321,"Ġfeast":2322,"Ġdire":2323,"esh":2324,"Ġlad":2325,"Ġpay":2326,"anus":2327,"Ġgro":2328,"ats":2329,"Ġred":2330,"Ġsoft":2331,"each":2332,"Ġsucc":2333,"icer":2334,"Ġblack":2335,"Ġgoes":2336,"Ġsworn":2337,"ĠSignior":2338,"elcome":2339,"Ġprop":2340,"Ġsons":2341,"Ġfoe":2342,"Ġext":2343,"ĠTower":2344,"Before":2345,"Ġtrou":2346,"Ġbegg":2347,"Ġbegin":2348,"Ġconsent":2349,"dden":2350,"Ġsoldiers":2351,"Ġrequest":2352,"ĠLucentio":2353,"Ġbetween":2354,"Ġquarrel":2355,"Ġsatisf":2356,"chmond":2357,"AS":2358,"Call":2359,"IR":2360,"Must":2361,"NT":2362,"Re":2363,"Sw":2364,"Such":2365,"gare":2366,"ires":2367,"ures":2368,"ung":2369,"uff":2370,"ĠFor":2371,"hem":2372,"Ġservant":2373,"Ġbar":2374,"Ġdro":2375,"Ġdark":2376,"Ġcr":2377,"Ġcase":2378,"Ġthri":2379,"aris":2380,"ots":2381,"stand":2382,"owers":2383,"irm":2384,"Ġloves":2385,"ĠCh":2386,"ends":2387,"Ġbless":2388,"empt":2389,"Ġthence":2390,"Ġworth":2391,"ĠAufidius":2392,"CATES":2393,"Ġexp":2394,"awd":2395,"Ġpresence":2396,"Ġpriv":2397,"Unless":2398,"Alas":2399,"Ġwounds":2400,"Ġdangerous":2401,"Because":2402,"garet":2403,"CATESBY":2404,"LY":2405,"oll":2406,"that":2407,"Ġsigh":2408,"Ġble":2409,"ona":2410,"onour":2411,"Ġhot":2412,"Ġgot":2413,"Ġinter":2414,"Ġund":2415,"Ġev":2416,"Ġsum":2417,"Ġneither":2418,"Ġvict":2419,"emn":2420,"ĠLond":2421,"ĠSir":2422,"ĠVols":2423,"cient":2424,"Ġwars":2425,"Ġflatter":2426,"Ġmighty":2427,"Ġrespect":2428,"Ġdread":2429,"Ġbride":2430,"Ġbrief":2431,"Ġthrone":2432,"Ġvoice":2433,"Ġemb":2434,"aptist":2435,"Ġdeny":2436,"Ġspoke":2437,"Ġwater":2438,"Ġvisit":2439,"ĠLondon":2440,"Both":2441,"BIAN":2442,"JOHN":2443,"Lest":2444,"Rome":2445,"REY":2446,"Yes":2447,"eorge":2448,"ip":2449,"iant":2450,"mand":2451,"ught":2452,"Ġest":2453,"Ġmal":2454,"Ġmortal":2455,"Ġbow":2456,"Ġbab":2457,"Ġfra":2458,"ern":2459,"Ġhur":2460,"Ġtown":2461,"Ġoften":2462,"Ġhaving":2463,"right":2464,"ided":2465,"Ġsudden":2466,"rum":2467,"Ġancient":2468,"Ġspeech":2469,"Ġvow":2470,"ĠGeorge":2471,"Ġloved":2472,"Ġkings":2473,"ĠBaptist":2474,"Ġworship":2475,"LIA":2476,"ĠParis":2477,"Ġsafe":2478,"ired":2479,"ainted":2480,"BAL":2481,"ĠMargaret":2482,"Ġprincely":2483,"BRA":2484,"Ġchamber":2485,"Ġseems":2486,"bey":2487,"Ġbuy":2488,"Ġdeeds":2489,"Whom":2490,"VERS":2491,"ĠRichmond":2492,"Ġbitter":2493,"BIANCA":2494,"BOW":2495,"Welcome":2496,"king":2497,"ls":2498,"lish":2499,"mb":2500,"rt":2501,"sp":2502,"ura":2503,"ĠThou":2504,"ĠThis":2505,"Ġfres":2506,"Ġfetch":2507,"Ġcol":2508,"Ġcross":2509,"Ġcoward":2510,"essed":2511,"Ġlim":2512,"Ġpen":2513,"otion":2514,"ated":2515,"urch":2516,"Ġknock":2517,"antage":2518,"oney":2519,"Ġprot":2520,"ĠGAU":2521,"ĠLady":2522,"ĠSaint":2523,"ĠServant":2524,"Ġkingdom":2525,"ĠPl":2526,"Ġsac":2527,"ELBOW":2528,"Ġheads":2529,"Ġscorn":2530,"Ġrage":2531,"Ġappear":2532,"Ġlead":2533,"Ġwitness":2534,"RIVERS":2535,"Ġpatient":2536,"Ġpromise":2537,"Ġlament":2538,"Ġvaliant":2539,"ĠIsab":2540,"Speak":2541,"Ġsuccess":2542,"ĠBaptista":2543,"ĠGAUNT":2544,"Bes":2545,"Ere":2546,"GUE":2547,"Hold":2548,"TY":2549,"cy":2550,"coun":2551,"nown":2552,"sper":2553,"will":2554,"xford":2555,"ĠKING":2556,"Ġign":2557,"Ġaction":2558,"Ġbro":2559,"Ġbawd":2560,"ities":2561,"Ġcle":2562,"Ġcreat":2563,"Ġcap":2564,"Ġlack":2565,"Ġthrow":2566,"Ġow":2567,"Ġopp":2568,"Ġgall":2569,"Ġforward":2570,"Ġeat":2571,"Ġkins":2572,"Their":2573,"iff":2574,"Ġang":2575,"Ġviol":2576,"antag":2577,"Ġprin":2578,"Ġprithee":2579,"ĠMy":2580,"Ġwash":2581,"ortens":2582,"aken":2583,"ĠPetruchio":2584,"Ġoffer":2585,"Ġleast":2586,"Ġslave":2587,"Ġflesh":2588,"ĠTranio":2589,"Ġprepare":2590,"Ġprayers":2591,"then":2592,"Ġappro":2593,"TAGUE":2594,"Ġtriump":2595,"Ġmoon":2596,"Ġcompl":2597,"itted":2598,"Ġtribunes":2599,"Ġdrink":2600,"ĠChrist":2601,"Romeo":2602,"ortensio":2603,"Yea":2604,"bit":2605,"but":2606,"ees":2607,"joy":2608,"ler":2609,"oor":2610,"ohem":2611,"vest":2612,"Ġid":2613,"Ġsur":2614,"Ġmid":2615,"ines":2616,"Ġfie":2617,"Ġdest":2618,"Ġnay":2619,"Ġthither":2620,"Ġhide":2621,"athar":2622,"Ġbeast":2623,"ley":2624,"Ġreb":2625,"raw":2626,"als":2627,"alth":2628,"cks":2629,"thumber":2630,"host":2631,"asters":2632,"feit":2633,"aked":2634,"pey":2635,"Ġalmost":2636,"ully":2637,"Ġscar":2638,"Ġsmall":2639,"Ġpresently":2640,"Ġfaults":2641,"Ġdepart":2642,"Ġsecret":2643,"Ġsubjects":2644,"Ġdefend":2645,"Ġpossess":2646,"atharina":2647,"thumberland":2648,"Con":2649,"DI":2650,"GI":2651,"IEL":2652,"Pl":2653,"VIR":2654,"Whi":2655,"aul":2656,"hind":2657,"ying":2658,"Ġtear":2659,"Ġwert":2660,"rey":2661,"Ġben":2662,"Ġbase":2663,"Ġbirth":2664,"Ġfill":2665,"Ġfond":2666,"Ġlab":2667,"arl":2668,"Ġpain":2669,"inger":2670,"Ġbec":2671,"Ġform":2672,"Ġeas":2673,"Ġstru":2674,"Ġliving":2675,"rue":2676,"though":2677,"Ġgoodly":2678,"Ġwhence":2679,"ĠGREY":2680,"Ġusurp":2681,"cience":2682,"Ġtrump":2683,"Ġhearing":2684,"Ġslaughter":2685,"Ġperform":2686,"Ġwrit":2687,"perate":2688,"ledge":2689,"Stay":2690,"Stand":2691,"Ġchance":2692,"PERDI":2693,"Ġvirtuous":2694,"Ġquickly":2695,"MONTAGUE":2696,"Ġdamn":2697,"ural":2698,"ohemia":2699,"GILIA":2700,"VIRGILIA":2701,"PERDITA":2702,"Ab":2703,"Doth":2704,"Peace":2705,"SET":2706,"SLY":2707,"ding":2708,"eem":2709,"gg":2710,"iest":2711,"over":2712,"oss":2713,"ror":2714,"your":2715,"ze":2716,"Ġut":2717,"Ġtor":2718,"Ġay":2719,"Ġmatch":2720,"Ġmild":2721,"Ġwild":2722,"read":2723,"isure":2724,"Ġfier":2725,"ony":2726,"Ġca":2727,"Ġcertain":2728,"arn":2729,"Ġpu":2730,"Ġpit":2731,"ingly":2732,"sem":2733,"Ġinj":2734,"Ġins":2735,"Ġinno":2736,"eds":2737,"edant":2738,"Ġur":2739,"Ġshad":2740,"Think":2741,"Ġknee":2742,"Ġkneel":2743,"astard":2744,"ustom":2745,"Ġblows":2746,"ĠSt":2747,"ĠOxford":2748,"Ġquiet":2749,"Ġproceed":2750,"ĠPaul":2751,"Ġhadst":2752,"Ġoffence":2753,"Ġadm":2754,"Ġpleas":2755,"force":2756,"Ġaffection":2757,"Ġslew":2758,"IANA":2759,"Ġlawful":2760,"Ġglad":2761,"bling":2762,"Ġweeping":2763,"MARIANA":2764,"Ġsoldier":2765,"Ġawhile":2766,"Ġdeserved":2767,"Ġexecution":2768,"ĠCoriolanus":2769,"Ġguilty":2770,"Ġpretty":2771,"ĠPompey":2772,"Ġangry":2773,"Fa":2774,"Mar":2775,"Master":2776,"PAR":2777,"RA":2778,"VINCENTIO":2779,"awn":2780,"dge":2781,"fully":2782,"gue":2783,"ked":2784,"med":2785,"ual":2786,"vol":2787,"zen":2788,"Ġap":2789,"Ġshi":2790,"Ġsho":2791,"Ġmed":2792,"Ġmod":2793,"Ġwalk":2794,"Ġfam":2795,"Ġfled":2796,"eness":2797,"Ġyear":2798,"Ġob":2799,"Ġocc":2800,"Ġhap":2801,"Ġmeasure":2802,"Ġforsw":2803,"adua":2804,"Ġreign":2805,"Ġdoom":2806,"ames":2807,"Ġnob":2808,"rupt":2809,"Ġourselves":2810,"Ġfavour":2811,"Ġneck":2812,"Ġshows":2813,"ended":2814,"Ġblow":2815,"Ġgovern":2816,"Ġwouldst":2817,"Ġletters":2818,"Ġunc":2819,"Ġunk":2820,"Ġworst":2821,"Ġspeaks":2822,"Ġmarch":2823,"ighb":2824,"ĠKatharina":2825,"Ġgreater":2826,"Ġleisure":2827,"osition":2828,"Ġtreason":2829,"ĠEnglish":2830,"Ġbanishment":2831,"Ġsense":2832,"remio":2833,"Ġcondemn":2834,"ointed":2835,"Ġdishonour":2836,"Ġclouds":2837,"Ġbreathe":2838,"Ġforbid":2839,"Ġliberty":2840,"Ġladies":2841,"Ġtrouble":2842,"rumio":2843,"ĠIsabel":2844,"counter":2845,"antagen":2846,"PARIS":2847,":'":2848,"Int":2849,"Out":2850,"Too":2851,"While":2852,"aves":2853,"acle":2854,"dle":2855,"house":2856,"rim":2857,"rous":2858,"ĠX":2859,"Ġsort":2860,"Ġmorrow":2861,"Ġwon":2862,"Ġdry":2863,"Ġcru":2864,"Ġlan":2865,"Ġlist":2866,"Ġlaid":2867,"aring":2868,"Ġobey":2869,"Ġheld":2870,"vel":2871,"ster":2872,"ators":2873,"Ġbehind":2874,"set":2875,"Ġnote":2876,"Ġstor":2877,"ider":2878,"Ġref":2879,"Ġlived":2880,"urs":2881,"Ġaside":2882,"Ġdog":2883,"Ġnoise":2884,"Ġseat":2885,"iles":2886,"Ġvain":2887,"ĠMerc":2888,"ĠBohemia":2889,"Ġletter":2890,"Ġjoin":2891,"ounds":2892,"Ġprosper":2893,"Ġrough":2894,"Ġabove":2895,"ize":2896,"Ġremain":2897,"Ġlonger":2898,"Ġwomb":2899,"Ġneeds":2900,"Ġchoose":2901,"Ġchurch":2902,"Ġprisoner":2903,"Ġsecond":2904,"Ġtemp":2905,"Ġgolden":2906,"undred":2907,"Ġdispatch":2908,"Ġpiece":2909,"Ġfresh":2910,"Ġignor":2911,"Ġbecause":2912,"antagenet":2913,"!--":2914,"Am":2915,"De":2916,"DOR":2917,"EW":2918,"En":2919,"Hark":2920,"LAR":2921,"Pr":2922,"Su":2923,"TIUS":2924,"bb":2925,"ban":2926,"cal":2927,"ffect":2928,"him":2929,"iled":2930,"ny":2931,"ts":2932,"under":2933,"ulet":2934,"ĠNow":2935,"Ġtent":2936,"Ġsch":2937,"Ġsus":2938,"Ġsaint":2939,"Ġmut":2940,"inius":2941,"Ġbig":2942,"Ġbroke":2943,"Ġbones":2944,"Ġfat":2945,"Ġfine":2946,"Ġfive":2947,"erle":2948,"itors":2949,"Ġdrown":2950,"Ġcitizens":2951,"Ġlen":2952,"Ġlow":2953,"Ġlust":2954,"Ġlau":2955,"Ġthreat":2956,"Ġhundred":2957,"Ġobed":2958,"Ġpet":2959,"vey":2960,"ang":2961,"Ġoft":2962,"Ġbend":2963,"Ġbell":2964,"Ġind":2965,"ceit":2966,"lease":2967,"ety":2968,"Ġeffect":2969,"Ġyourselves":2970,"Ġstood":2971,"Ġstain":2972,"Ġsteel":2973,"Ġsteal":2974,"ords":2975,"asion":2976,"Ġrevere":2977,"Ġsole":2978,"ARIEL":2979,"ease":2980,"Ġknees":2981,"ular":2982,"icious":2983,"Ġconqu":2984,"ieu":2985,"Ġblessed":2986,"ĠGaunt":2987,"ĠGremio":2988,"Ġshed":2989,"ĠLet":2990,"ĠLEW":2991,"Ġswift":2992,"ĠHortensio":2993,"Ġgrand":2994,"Ġproclaim":2995,"ĠPr":2996,"ĠPadua":2997,"Ġsaf":2998,"ume":2999,"ĠWatch":3000,"istress":3001,"Ġexc":3002,"Ġdesperate":3003,"Ġslander":3004,"Ġprecious":3005,"Ġbears":3006,"Ġappare":3007,"Ġconscience":3008,"Ġentertain":3009,"ontent":3010,"Ġpride":3011,"Sirrah":3012,"uthor":3013,"Ġglory":3014,"Ġdouble":3015,"atesby":3016,"Ġwoes":3017,"posed":3018,"Ġlands":3019,"Ġsentence":3020,"ĠNorthumberland":3021,"Ġdrunk":3022,"Ġtowards":3023,"ĠCapulet":3024,"Unto":3025,"Ġforgot":3026,"Ġwisdom":3027,"Ġvenge":3028,"Sweet":3029,"Ġvictory":3030,"Ġkinsman":3031,"ĠXI":3032,"LARTIUS":3033,"ĠLEWIS":3034,"ĠWatchman":3035,";'":3036,"Bel":3037,"Could":3038,"Hear":3039,"MP":3040,"Me":3041,"Pardon":3042,"Pedant":3043,"RTIS":3044,"bray":3045,"den":3046,"gment":3047,"hn":3048,"iance":3049,"ohn":3050,"pir":3051,"ude":3052,"vail":3053,"which":3054,"head":3055,"Ġauthor":3056,"Ġsour":3057,"Ġmount":3058,"Ġmethinks":3059,"Ġmoney":3060,"Ġmasters":3061,"rent":3062,"rence":3063,"Ġfe":3064,"Ġfru":3065,"Ġfought":3066,"Ġfew":3067,"Ġdied":3068,"Ġdeter":3069,"Ġcapt":3070,"Ġpun":3071,"owbray":3072,"Ġhair":3073,"irl":3074,"Ġeld":3075,"Ġstud":3076,"estion":3077,"Ġdoing":3078,"iful":3079,"Ġseal":3080,"ility":3081,"ĠCa":3082,"cted":3083,"ETER":3084,"Ġmanner":3085,"ĠEarl":3086,"ĠGo":3087,"ĠGrumio":3088,"Ġknowledge":3089,"umerle":3090,"Ġenjoy":3091,"Ġran":3092,"ĠAnt":3093,"Within":3094,"Ġalive":3095,"Ġabro":3096,"ways":3097,"Ġhonours":3098,"Ġwarm":3099,"ations":3100,"Ġdeadly":3101,"Ġkept":3102,"Ġcontr":3103,"Ġcontin":3104,"Ġarmy":3105,"Ġlordship":3106,"Ġguest":3107,"Ġguess":3108,"CURTIS":3109,"Ġpromised":3110,"comes":3111,"eeper":3112,"Ġwretched":3113,"Ġdespair":3114,"Ġcheeks":3115,"SAMP":3116,"Ġlabour":3117,"Ġstruck":3118,"Faith":3119,"Ġdeterm":3120,"SAMPSON":3121,"'re":3122,":--":3123,"BU":3124,"Br":3125,"Citizens":3126,"Dis":3127,"EX":3128,"Either":3129,"IGON":3130,"bury":3131,"ey":3132,"good":3133,"mit":3134,"take":3135,"Ġtry":3136,"Ġteach":3137,"Ġaid":3138,"ounce":3139,"Ġsim":3140,"reed":3141,"Ġbastard":3142,"orious":3143,"llow":3144,"ited":3145,"Ġdance":3146,"Ġcorn":3147,"Ġcred":3148,"Ġcried":3149,"Ġpal":3150,"Ġhel":3151,"Ġhealth":3152,"stant":3153,"utio":3154,"ourn":3155,"Ġliest":3156,"Ġdeg":3157,"Ġdemand":3158,"Ġshake":3159,"eaven":3160,"ament":3161,"Ġsever":3162,"Ġherself":3163,"Ġspent":3164,"ĠMaster":3165,"ĠMowbray":3166,"Ġwhether":3167,"Ġamong":3168,"Ġshepherd":3169,"othing":3170,"ppy":3171,"Ġunp":3172,"Ġunw":3173,"ĠHow":3174,"Ġquoth":3175,"Ġprov":3176,"umb":3177,"Ġplant":3178,"ĠWill":3179,"ĠWhy":3180,"osed":3181,"Ġencounter":3182,"Ġrot":3183,"Ġofficer":3184,"Ġbrothers":3185,"Ġearly":3186,"Ġhonourable":3187,"Ġflowers":3188,"LEY":3189,"Ġcalls":3190,"Ġwhite":3191,"Ġremed":3192,"Ġmoved":3193,"Ġaccount":3194,"ewis":3195,"Ġkindred":3196,"Ġpriest":3197,"Ġguard":3198,"Ġcharity":3199,"Ġunderstand":3200,"Ġfoolish":3201,"Ġhumble":3202,"Ġcounter":3203,"Ġdreams":3204,"Ġgreet":3205,"ANTIGON":3206,"Ġvalour":3207,"Ġjudge":3208,"Ġwretch":3209,"Ġbeggar":3210,"Ġsummer":3211,"Ġtriumph":3212,"Ġcruel":3213,"BURY":3214,"ANTIGONUS":3215,"Bet":3216,"Fear":3217,"Lo":3218,"Mine":3219,"Made":3220,"TCLIFF":3221,"True":3222,"fall":3223,"mon":3224,"rison":3225,"ĠAnd":3226,"heart":3227,"ining":3228,"Ġwail":3229,"orthy":3230,"Ġfart":3231,"Ġfaint":3232,"ites":3233,"Ġdin":3234,"Ġdwell":3235,"Ġyea":3236,"Ġthro":3237,"Ġhung":3238,"Ġpack":3239,"Ġga":3240,"Ġgent":3241,"leep":3242,"Ġforce":3243,"Ġweary":3244,"Ġstone":3245,"Ġstars":3246,"ask":3247,"roy":3248,"Ġbutcher":3249,"ify":3250,"Ġseven":3251,"Ġanon":3252,"Ġours":3253,"ĠCom":3254,"Ġneighb":3255,"ĠRoman":3256,"Ġvie":3257,"ief":3258,"Ġblame":3259,"Ġgoing":3260,"ĠLewis":3261,"Ġthereof":3262,"Ġunf":3263,"Ġuns":3264,"Ġenvy":3265,"Ġrise":3266,"Ġthinks":3267,"Ġrid":3268,"Ġparty":3269,"Ġadd":3270,"Ġothers":3271,"ĠJohn":3272,"ians":3273,"Ġkindness":3274,"Ġchast":3275,"Ġbids":3276,"Ġbright":3277,"Ġglass":3278,"Ġmiser":3279,"Ġcrave":3280,"Twas":3281,"Ġwinter":3282,"Ġmonth":3283,"Ġminister":3284,"Ġwalls":3285,"Ġextrem":3286,"Ġsatisfied":3287,"Ġprivate":3288,"ĠVolsces":3289,"Ġidle":3290,"Ġscarce":3291,"Ġbenef":3292,"RATCLIFF":3293,"Ġlaugh":3294,"Ġvengeance":3295,"Ġabroad":3296,"Ġview":3297,"After":3298,"Bid":3299,"BIS":3300,"Fie":3301,"Gentle":3302,"HOP":3303,"Ne":3304,"Never":3305,"Signior":3306,"Under":3307,"aff":3308,"gra":3309,"ners":3310,"ope":3311,"shall":3312,"ued":3313,"vious":3314,"whe":3315,"woman":3316,"Ġver":3317,"incentio":3318,"Ġwre":3319,"Ġwench":3320,"rees":3321,"have":3322,"orous":3323,"Ġfirm":3324,"Ġcir":3325,"Ġcorse":3326,"enes":3327,"Ġlest":3328,"Ġhol":3329,"vell":3330,"ott":3331,"omas":3332,"att":3333,"ating":3334,"Ġincl":3335,"cell":3336,"utland":3337,"Ġformer":3338,"Ġease":3339,"riar":3340,"ident":3341,"Ġrel":3342,"Ġreceived":3343,"Ġdeal":3344,"amp":3345,"Ġsport":3346,"Ġfaire":3347,"ANLEY":3348,"ĠRutland":3349,"Ġvile":3350,"Ġshrew":3351,"antua":3352,"ĠMantua":3353,"Ġconcl":3354,"Ġconvey":3355,"Ġgod":3356,"allow":3357,"ĠBarn":3358,"Ġarri":3359,"Ġunb":3360,"ĠHer":3361,"ĠVincentio":3362,"Ġmayst":3363,"eless":3364,"Ġquite":3365,"Ġprovost":3366,"IST":3367,"Ġtruly":3368,"Ġdism":3369,"Off":3370,"Ġfoes":3371,"Ġroot":3372,"Ġwherefore":3373,"Ġflower":3374,"Ġimag":3375,"Ġtrial":3376,"ailor":3377,"Ġsmo":3378,"Ġtrem":3379,"Ġfellows":3380,"rench":3381,"Ġchanged":3382,"Ġcover":3383,"Ġhumour":3384,"Ġboot":3385,"Ġswords":3386,"Ġdeputy":3387,"Ġcondition":3388,"Ġjudgment":3389,"change":3390,"Ġtyrant":3391,"Ġacqu":3392,"Ġevil":3393,"BALT":3394,"TYBALT":3395,"Whilst":3396,"Ġeasy":3397,"ĠMercutio":3398,"Ġschool":3399,"Ġexcuse":3400,"Ġfruit":3401,"BISHOP":3402,"'?":3403,"AL":3404,"Bl":3405,"Des":3406,"Ex":3407,"KEN":3408,"Methinks":3409,"Put":3410,"Tut":3411,"ault":3412,"after":3413,"con":3414,"ek":3415,"ead":3416,"ered":3417,"his":3418,"oot":3419,"pin":3420,"roth":3421,"rate":3422,"shi":3423,"ta":3424,"vish":3425,"Ġtaken":3426,"Ġwither":3427,"Ġba":3428,"Ġbrow":3429,"Ġbite":3430,"Ġbrows":3431,"Ġfain":3432,"Ġfeed":3433,"erona":3434,"Ġdust":3435,"Ġdull":3436,"enance":3437,"Ġthunder":3438,"Ġpains":3439,"anley":3440,"Ġgown":3441,"Ġgrown":3442,"Ġgift":3443,"Ġghost":3444,"Ġgirl":3445,"Ġbeha":3446,"Ġmeat":3447,"rift":3448,"Ġstab":3449,"Ġstoop":3450,"idings":3451,"ract":3452,"arden":3453,"Ġspe":3454,"Ġspake":3455,"Ġspring":3456,"ilia":3457,"ĠCatesby":3458,"Ġknave":3459,"AND":3460,"Ġvice":3461,"aste":3462,"Ġshore":3463,"Ġproof":3464,"Ġblest":3465,"Ġblind":3466,"ement":3467,"Ġsirrah":3468,"Ġunl":3469,"Ġquestion":3470,"Ġjoint":3471,"cians":3472,"ĠWe":3473,"ĠAl":3474,"ĠAumerle":3475,"Ġhonesty":3476,"ursed":3477,"Ġleaves":3478,"Ġtwice":3479,"aper":3480,"ĠKeeper":3481,"Ġprevent":3482,"OMAS":3483,"there":3484,"ĠMars":3485,"Ġrepent":3486,"Ġtraitors":3487,"twixt":3488,"Ġimport":3489,"Ġwrongs":3490,"Ġburied":3491,"ealous":3492,"place":3493,"Ġreasons":3494,"Alack":3495,"Ġsenate":3496,"Ġgreen":3497,"Ġaffair":3498,"acher":3499,"Ġchoice":3500,"azed":3501,"Ġdivine":3502,"ĠCorioli":3503,"Ġwhilst":3504,"Ġstop":3505,"Ġtyran":3506,"Ġprophe":3507,"Ġembrace":3508,"Ġmalice":3509,"BRAKEN":3510,"ĠPlantagenet":3511,"Ġsacred":3512,"Ġfiery":3513,"Ġinnocent":3514,"ĠPaulina":3515,"Ġleng":3516,"ĠPrince":3517,"Ġsafety":3518,"ĠCominius":3519,"BRAKENBURY":3520,"?'":3521,"Ad":3522,"DER":3523,"DON":3524,"Edward":3525,"GOR":3526,"Hence":3527,"Ind":3528,"MIST":3529,"Once":3530,"Richard":3531,"RESS":3532,"cha":3533,"draw":3534,"eld":3535,"go":3536,"mn":3537,"my":3538,"more":3539,"nat":3540,"op":3541,"oly":3542,"oard":3543,"pet":3544,"port":3545,"poll":3546,"sic":3547,"would":3548,"Ġed":3549,"ĠTo":3550,"Ġavo":3551,"Ġsits":3552,"inous":3553,"Ġwag":3554,"Ġwings":3555,"rehe":3556,"Ġbark":3557,"orry":3558,"Ġfury":3559,"Ġfinger":3560,"erset":3561,"itol":3562,"Ġcustom":3563,"enen":3564,"anch":3565,"omerset":3566,"Ġgross":3567,"Ġgarden":3568,"Ġinform":3569,"edious":3570,"Ġused":3571,"Ġweeds":3572,"Ġele":3573,"Ġeag":3574,"Ġstones":3575,"Ġdec":3576,"Ġdoor":3577,"Ġnose":3578,"Ġallow":3579,"think":3580,"Ġanger":3581,"ardine":3582,"Ġloath":3583,"Ġloyal":3584,"ellow":3585,"Ġfares":3586,"Ġnecess":3587,"Ġknight":3588,"ctise":3589,"Ġshr":3590,"Ġoracle":3591,"ĠOVER":3592,"Myself":3593,"hysic":3594,"Ġmayor":3595,"elve":3596,"Ġhollow":3597,"Ġsail":3598,"Ġplague":3599,"unning":3600,"Ġround":3601,"Ġfright":3602,"icked":3603,"Without":3604,"Ġalways":3605,"Ġrob":3606,"Ġrock":3607,"Ġwherein":3608,"Ġdesign":3609,"Wherein":3610,"aughters":3611,"Ġadieu":3612,"Ġcommend":3613,"Ġclaim":3614,"Ġprevail":3615,"Ġprayer":3616,"PETER":3617,"Ġplead":3618,"Ġperceive":3619,"Ġtroth":3620,"Ġrude":3621,"Ġtongues":3622,"Ġsubst":3623,"Ġsmile":3624,"Ġimprison":3625,"Ġcares":3626,"GREGOR":3627,"Ġdrawn":3628,"Ġempt":3629,"Ġwanton":3630,"Ġassist":3631,"unts":3632,"Ġtempt":3633,"Ġdeserve":3634,"Ġdelight":3635,"ĠCapitol":3636,"Ġpractise":3637,"Ġcheek":3638,"Ġabsence":3639,"ĠThomas":3640,"Ġdrop":3641,"Ġcreature":3642,"Ġtrumpets":3643,"Ġutter":3644,"Ġlangu":3645,"Ġignorant":3646,"Brother":3647,"Ġrotten":3648,"Ġremedy":3649,"Ġcirc":3650,"ĠBarnardine":3651,"DERBY":3652,"DONE":3653,"Indeed":3654,"MISTRESS":3655,"enenius":3656,"ĠOVERDONE":3657,"GREGORY":3658,"Art":3659,"CH":3660,"Dost":3661,"FORD":3662,"OX":3663,"Poor":3664,"Res":3665,"RICH":3666,"SOM":3667,"Turn":3668,"VAL":3669,"act":3670,"dy":3671,"eous":3672,"mion":3673,"sing":3674,"thi":3675,"what":3676,"yard":3677,"Ġes":3678,"ĠWhere":3679,"Ġtune":3680,"Ġtidings":3681,"Ġtedious":3682,"held":3683,"Ġaim":3684,"Ġaught":3685,"Ġship":3686,"Ġsens":3687,"Ġwent":3688,"Ġwont":3689,"Ġwives":3690,"Ġwicked":3691,"haps":3692,"isa":3693,"ises":3694,"onounce":3695,"Ġdur":3696,"Ġcre":3697,"Ġcell":3698,"Ġcure":3699,"Ġcarry":3700,"Ġcries":3701,"esy":3702,"Ġnumber":3703,"Ġlar":3704,"Ġloud":3705,"Ġthrust":3706,"Ġhit":3707,"Ġhid":3708,"Ġpil":3709,"Ġpair":3710,"othe":3711,"Ġbecomes":3712,"cend":3713,"utes":3714,"iment":3715,"rious":3716,"Ġstar":3717,"Ġstat":3718,"Ġsteed":3719,"ashi":3720,"Ġreceive":3721,"Ġasleep":3722,"Ġdew":3723,"Ġdeceived":3724,"Ġdeposed":3725,"Ġshar":3726,"this":3727,"ards":3728,"hant":3729,"Ġvantage":3730,"ERIA":3731,"ERSET":3732,"ĠMusic":3733,"Ġconj":3734,"ongs":3735,"ĠGrey":3736,"Ġsheep":3737,"Ġtherein":3738,"ĠSic":3739,"ĠSomerset":3740,"ĠVerona":3741,"Ġjealous":3742,"Ġshouldst":3743,"Ġproper":3744,"Ġras":3745,"Ġoutward":3746,"Ġwhole":3747,"Ġoffend":3748,"ĠYour":3749,"Ġalas":3750,"Ġheav":3751,"Ġearn":3752,"eeth":3753,"Ġmeaning":3754,"aced":3755,"Ġchief":3756,"Ġbegins":3757,"ĠJove":3758,"Ġruin":3759,"loved":3760,"ission":3761,"Ġresign":3762,"Ġfollows":3763,"Ġtread":3764,"Ġtreacher":3765,"ethought":3766,"Ġbanished":3767,"Ġpassing":3768,"Ġwoful":3769,"Ġdevise":3770,"Ġfollowers":3771,"Ġfools":3772,"Ġmaids":3773,"Show":3774,"Ġadvise":3775,"Ġgives":3776,"itting":3777,"Ġrememb":3778,"Ġawake":3779,"Ġborne":3780,"Ġsupper":3781,"Ġlamb":3782,"Ġcondu":3783,"aze":3784,"Ġsilence":3785,"Ġpossible":3786,"Having":3787,"Ġprofess":3788,"Ġdespite":3789,"MOND":3790,"Ġgarments":3791,"Ġcastle":3792,"Ġthrive":3793,"Ġexpress":3794,"Ġundone":3795,"Ġdreadful":3796,"Ġbabe":3797,"Ġprotect":3798,"Besides":3799,"Ġbroken":3800,"Ġviolent":3801,"ĠChristian":3802,"Ġpubl":3803,"Ġoccasion":3804,"Ġnobles":3805,"Into":3806,"ursday":3807,"Ġfatal":3808,"Ġbelly":3809,"Ġauthority":3810,"Ġsimple":3811,"Ġfarther":3812,"Ġthroat":3813,"Ġbenefit":3814,"pinion":3815,"Ġaffairs":3816,"pollo":3817,"OXFORD":3818,"RICHMOND":3819,"SOMERSET":3820,"VALERIA":3821,"mione":3822,"AMIL":3823,"BUS":3824,"Great":3825,"HY":3826,"Hast":3827,"LIUS":3828,"MOP":3829,"MAMIL":3830,"Per":3831,"Tybalt":3832,"Tailor":3833,"Very":3834,"app":3835,"cing":3836,"can":3837,"eg":3838,"fl":3839,"father":3840,"gle":3841,"iond":3842,"oat":3843,"pr":3844,"ron":3845,"son":3846,"ub":3847,"Ġer":3848,"Ġir":3849,"ĠThere":3850,"Ġtort":3851,"Ġtaste":3852,"Ġsan":3853,"Ġsix":3854,"Ġsorry":3855,"Ġwine":3856,"Ġwander":3857,"Ġband":3858,"Ġbond":3859,"erved":3860,"itude":3861,"Ġdet":3862,"Ġdue":3863,"Ġcal":3864,"Ġcam":3865,"Ġcunning":3866,"ene":3867,"enn":3868,"Ġnine":3869,"Ġnames":3870,"Ġlend":3871,"arch":3872,"Ġtop":3873,"Ġpin":3874,"Ġpawn":3875,"Ġpaper":3876,"Ġphysic":3877,"Ġgain":3878,"Ġgage":3879,"Ġbelike":3880,"Ġbeheld":3881,"Ġinfect":3882,"ldom":3883,"eding":3884,"utation":3885,"Ġweight":3886,"Ġweap":3887,"ills":3888,"Ġequ":3889,"enture":3890,"Ġstore":3891,"Ġstep":3892,"Ġstock":3893,"Ġstuff":3894,"Ġrenown":3895,"rand":3896,"Ġlip":3897,"Ġdeare":3898,"room":3899,"eave":3900,"usion":3901,"iffe":3902,"Ġseas":3903,"Ġsup":3904,"run":3905,"Ġange":3906,"Ġlod":3907,"ello":3908,"Ġspend":3909,"Ġspare":3910,"hop":3911,"Ġvan":3912,"ouses":3913,"Ġshut":3914,"ustice":3915,"ĠMOW":3916,"ĠMenenius":3917,"olix":3918,"Ġsway":3919,"Ġbrook":3920,"Ġkingly":3921,"ĠBona":3922,"Ġunnat":3923,"ĠHarry":3924,"Ġquit":3925,"imely":3926,"Ġenvious":3927,"Ġrash":3928,"Ġdisd":3929,"ABHOR":3930,"Ġroom":3931,"Ġexile":3932,"Ġexcell":3933,"Ġdesert":3934,"Ġgentlewoman":3935,"Ġflight":3936,"Ġtwelve":3937,"Ġparts":3938,"Ġprey":3939,"THOMAS":3940,"Ġperil":3941,"Ġperish":3942,"Ġtrans":3943,"iteous":3944,"ĠFriar":3945,"Ġwhither":3946,"swain":3947,"Ġuntil":3948,"Ġaffect":3949,"Ġlean":3950,"Ġlegs":3951,"orses":3952,"Ġkeeps":3953,"Ġaccus":3954,"STANLEY":3955,"Ġprize":3956,"Ġpursu":3957,"Ġchair":3958,"Ġcountenance":3959,"Ġpleased":3960,"ounty":3961,"Ġhumbly":3962,"Ġcourtesy":3963,"Ġadvantage":3964,"Ġcurst":3965,"ploy":3966,"Ġspirits":3967,"Two":3968,"Ġintend":3969,"Ġdenied":3970,"ancy":3971,"Ġdisposition":3972,"Ġbetwixt":3973,"Ġsilver":3974,"Ġdelay":3975,"Ġresolve":3976,"ĠThursday":3977,"Ġwedding":3978,"Ġsighs":3979,"Ġhurt":3980,"BRAY":3981,"Ġcolour":3982,"Ġclear":3983,"Ġowe":3984,"Ġprepared":3985,"Ġdamned":3986,"Ġshadow":3987,"Ġpleasant":3988,"Ġforsworn":3989,"Ġstorm":3990,"Death":3991,"Ġthreaten":3992,"Ġconquer":3993,"Ġpunish":3994,"ĠCaius":3995,"Ġcontrary":3996,"EXETER":3997,"Ġpalace":3998,"Ġdinner":3999,"Ġneighbour":4000,"Ġmiserable":4001,"Ġspeci":4002,"Ġempty":4003,"ĠMusician":4004,"BUSHY":4005,"MOPSA":4006,"MAMILLIUS":4007,"iondello":4008,"Ġsanct":4009,"ĠMOWBRAY":4010,"olixenes":4011,"ABHORSON":4012,"CY":4013,"Cousin":4014,"Ed":4015,"Know":4016,"None":4017,"Nothing":4018,"Pre":4019,"Ret":4020,"Right":4021,"Rem":4022,"Rep":4023,"Sc":4024,"Sha":4025,"Widow":4026,"bow":4027,"born":4028,"grace":4029,"hor":4030,"hore":4031,"lar":4032,"mity":4033,"oc":4034,"oke":4035,"par":4036,"ping":4037,"pic":4038,"pass":4039,"tune":4040,"urious":4041,"we":4042,"wise":4043,"yond":4044,"ĠWhen":4045,"Ġtut":4046,"Ġtable":4047,"Ġscept":4048,"Ġmiss":4049,"Ġmurderer":4050,"Ġmaking":4051,"Ġmotion":4052,"Ġmourn":4053,"Ġwot":4054,"Ġwood":4055,"Ġwol":4056,"Ġwond":4057,"rease":4058,"Ġbas":4059,"Ġbare":4060,"Ġball":4061,"Ġbud":4062,"ising":4063,"Ġfle":4064,"Ġfro":4065,"Ġfee":4066,"Ġfashi":4067,"erve":4068,"Ġdi":4069,"Ġdign":4070,"Ġdies":4071,"Ġdag":4072,"Ġdaughters":4073,"Ġcens":4074,"Ġcup":4075,"Ġcalm":4076,"ency":4077,"Ġnaked":4078,"Ġyonder":4079,"Ġopinion":4080,"Ġpure":4081,"Ġport":4082,"Ġpainted":4083,"Ġpiteous":4084,"Ġheed":4085,"ote":4086,"ane":4087,"Ġgate":4088,"Ġbew":4089,"Ġbeloved":4090,"sequ":4091,"irg":4092,"Ġmend":4093,"ourish":4094,"Ġweigh":4095,"rib":4096,"Ġstory":4097,"Ġreward":4098,"urance":4099,"Ġdebt":4100,"Ġones":4101,"ARCH":4102,"amed":4103,"Ġseest":4104,"Three":4105,"ruly":4106,"thou":4107,"Ġfail":4108,"ERCY":4109,"que":4110,"Ġgoodness":4111,"Ġpronounce":4112,"Ġcomple":4113,"ĠMessenger":4114,"Ġamb":4115,"Ġamen":4116,"outs":4117,"oler":4118,"Ġhatred":4119,"Ġtheirs":4120,"ĠBiondello":4121,"Ġarg":4122,"igence":4123,"Ġquench":4124,"Ġhopes":4125,"cio":4126,"cian":4127,"Ġseeing":4128,"ĠPro":4129,"ĠPeter":4130,"ĠPisa":4131,"ĠPolixenes":4132,"ĠPERCY":4133,"umble":4134,"Ġplot":4135,"Ġdiss":4136,"Ġexpect":4137,"Ġslow":4138,"Ġado":4139,"THAS":4140,"ĠDid":4141,"Ġperfect":4142,"Ġperpet":4143,"Ġwrath":4144,"Thanks":4145,"lesome":4146,"ĠFl":4147,"Ġremains":4148,"Ġcrowns":4149,"Ġhark":4150,"Ġcourage":4151,"Ġwits":4152,"clock":4153,"Ġaccess":4154,"Ġaccuse":4155,"Ġfolly":4156,"Only":4157,"Ġends":4158,"Ġendure":4159,"Ġneedful":4160,"Still":4161,"Ġbodies":4162,"Ġjoys":4163,"Ġjoyful":4164,"Ġfortunes":4165,"Ġmistake":4166,"Ġnatural":4167,"Ġhappiness":4168,"Ġmisery":4169,"Ġundertake":4170,"Ġchide":4171,"Ġattempt":4172,"Ġadvance":4173,"Ġcurses":4174,"Ġemploy":4175,"Ġassurance":4176,"Ġpersu":4177,"Ġdiscontent":4178,"Ġsenators":4179,"Ġcrack":4180,"Ġintent":4181,"Ġsometime":4182,"Ġwounded":4183,"Ġspoken":4184,"Ġdrum":4185,"Ġmarket":4186,"cape":4187,"Ġwaters":4188,"Ġcursed":4189,"Ġinstruct":4190,"Ġinstrument":4191,"ĠNap":4192,"ĠRivers":4193,"Ġterror":4194,"Ġresolved":4195,"chance":4196,"Ġwhiles":4197,"Ġcorrupt":4198,"ney":4199,"Ġburthen":4200,"Ġgriev":4201,"Ġduked":4202,"Ġaccept":4203,"Ġgroan":4204,"BALTHAS":4205,"Ġcolours":4206,"Ġpenit":4207,"Ġprotest":4208,"Ġprinces":4209,"Ġprincess":4210,"ĠStanley":4211,"Ġgovernment":4212,"Prithee":4213,"Ġobedience":4214,"Ġpetition":4215,"Ġsolemn":4216,"Believe":4217,"Ġcontinue":4218,"Ġcredit":4219,"Ġseveral":4220,"hearted":4221,"Ġwreck":4222,"Ġlanguage":4223,"Ġcircum":4224,"Ġdurst":4225,"Ġremembrance":4226,"Ġpublic":4227,"Ġunnatural":4228,"picion":4229,"Ġdukedom":4230,"BALTHASAR":4231,"?--":4232,"Ar":4233,"App":4234,"AEd":4235,"Bear":4236,"Boat":4237,"Father":4238,"FOL":4239,"Heaven":4240,"Love":4241,"Might":4242,"Mark":4243,"OS":4244,"Post":4245,"Page":4246,"Save":4247,"afe":4248,"bear":4249,"do":4250,"dds":4251,"ex":4252,"fer":4253,"gers":4254,"how":4255,"ipe":4256,"just":4257,"lic":4258,"oe":4259,"oved":4260,"ped":4261,"pro":4262,"sc":4263,"same":4264,"time":4265,"uary":4266,"val":4267,"vours":4268,"yr":4269,"ĠNay":4270,"ĠThey":4271,"Ġtest":4272,"Ġteeth":4273,"hest":4274,"Ġsink":4275,"Ġsins":4276,"Ġmag":4277,"Ġmile":4278,"ination":4279,"happy":4280,"ishop":4281,"Ġfame":4282,"erd":4283,"ita":4284,"Ġcock":4285,"Ġcease":4286,"ences":4287,"Ġnought":4288,"Ġled":4289,"aries":4290,"Ġhost":4291,"Ġhunt":4292,"Ġhouses":4293,"Ġhorses":4294,"Ġodd":4295,"Ġobs":4296,"Ġodds":4297,"Ġtomb":4298,"Ġpol":4299,"Ġpowers":4300,"strous":4301,"omp":4302,"omen":4303,"atic":4304,"atience":4305,"Ġbeyond":4306,"Ġhaz":4307,"uted":4308,"Ġmere":4309,"Ġisle":4310,"Ġisland":4311,"ourage":4312,"Ġeast":4313,"Ġits":4314,"Ġkin":4315,"idence":4316,"Ġrepe":4317,"Ġrealm":4318,"Ġshape":4319,"uses":4320,"ified":4321,"Ġseize":4322,"Those":4323,"Ġspite":4324,"Ġfaces":4325,"ĠCan":4326,"ĠCal":4327,"ĠROS":4328,"Ġvault":4329,"Ġvirg":4330,"Ġshun":4331,"ants":4332,"Ġcomest":4333,"Ġmanners":4334,"ĠEl":4335,"icular":4336,"Ġconc":4337,"ieved":4338,"Ġblock":4339,"Ġblush":4340,"ĠGood":4341,"ared":4342,"arent":4343,"olute":4344,"Ġhereafter":4345,"Ġswallow":4346,"Ġbrings":4347,"ĠSo":4348,"ĠBl":4349,"elt":4350,"Ġqual":4351,"Ġjour":4352,"Young":4353,"akest":4354,"ument":4355,"Ġfathers":4356,"ĠWho":4357,"Ġenmity":4358,"Ġring":4359,"CAS":4360,"ĠYet":4361,"Ġalter":4362,"Ġlooking":4363,"Ġfriendly":4364,"Ġslay":4365,"Ġflies":4366,"ĠTake":4367,"Ġfairly":4368,"tled":4369,"Ġadvers":4370,"Ġclo":4371,"Ġwrite":4372,"Ġtrade":4373,"Ġways":4374,"Ġscope":4375,"Ġscene":4376,"aintain":4377,"they":4378,"Ġkey":4379,"ĠFrench":4380,"Ġapprehe":4381,"Ġcontract":4382,"Ġwhore":4383,"Ġarmour":4384,"ctions":4385,"Ġuntimely":4386,"ression":4387,"Ġimm":4388,"Ġrepair":4389,"Ġrule":4390,"Ġleads":4391,"Ġslept":4392,"Ġaccord":4393,"Ġpurcha":4394,"Ġcompass":4395,"orset":4396,"Ġseeming":4397,"Ġbrain":4398,"Ġglorious":4399,"Ġimposs":4400,"Ġpassage":4401,"Ġmaiden":4402,"Ġhateful":4403,"Ġstrew":4404,"Ġturns":4405,"uteous":4406,"Ġinstant":4407,"Ġboar":4408,"Ġwants":4409,"NORFOL":4410,"Ġdiscover":4411,"Ġcommanded":4412,"Ġhanging":4413,"Ġcontented":4414,"Ġdares":4415,"Ġfreely":4416,"Ġgrey":4417,"Ġservices":4418,"Ġtemper":4419,"Ġdrums":4420,"Ġcholer":4421,"Ġgrows":4422,"Ġdeserves":4423,"noon":4424,"ĠLucio":4425,"Ġgranted":4426,"Comm":4427,"Ġterms":4428,"Ġincrease":4429,"Ġresolution":4430,"Ġshortly":4431,"Ġvex":4432,"Ġpraise":4433,"Ġabsent":4434,"Ġvenom":4435,"Ġdrops":4436,"Ġprivile":4437,"Ġrespected":4438,"Ġframe":4439,"Beseech":4440,"Ġapproach":4441,"Ġcomplain":4442,"Ġtorment":4443,"Ġunknown":4444,"Ġprosperous":4445,"DORCAS":4446,"Ġsuspicion":4447,"Ġreverend":4448,"Ġapparel":4449,"Ġcaptain":4450,"Ġdegree":4451,"ĠHermione":4452,"Ġsmooth":4453,"Ġlarge":4454,"Ġsharp":4455,"Ġearnest":4456,"Ġcamest":4457,"Ġdisdain":4458,"Ġexcellent":4459,"Ġsceptre":4460,"Ġdagger":4461,"ĠNaples":4462,"Boatswain":4463,"ĠROSS":4464,"NORFOLK":4465,"Amen":4466,"Boy":4467,"Came":4468,"Cons":4469,"DIN":4470,"Dear":4471,"FER":4472,"GH":4473,"Ghost":4474,"Has":4475,"Long":4476,"Mistress":4477,"NS":4478,"Please":4479,"RR":4480,"Roman":4481,"Set":4482,"Wilt":4483,"Worthy":4484,"aces":4485,"aily":4486,"bri":4487,"bra":4488,"dis":4489,"fret":4490,"gl":4491,"gar":4492,"iven":4493,"iate":4494,"ipp":4495,"kin":4496,"ker":4497,"law":4498,"pul":4499,"uce":4500,"wife":4501,"ĠTherefore":4502,"Ġtame":4503,"Ġtaught":4504,"Ġtap":4505,"Ġtide":4506,"Ġable":4507,"Ġsqu":4508,"Ġsouth":4509,"Ġmor":4510,"Ġmill":4511,"Ġmessenger":4512,"iny":4513,"reg":4514,"reland":4515,"reme":4516,"Ġbird":4517,"Ġbury":4518,"isper":4519,"Ġfig":4520,"Ġfurn":4521,"itus":4522,"Ġdig":4523,"Ġdress":4524,"Ġdaily":4525,"Ġchat":4526,"Ġcatch":4527,"Ġlark":4528,"Ġthorn":4529,"Ġthief":4530,"Ġparent":4531,"ĠIreland":4532,"ances":4533,"omans":4534,"ater":4535,"ature":4536,"atcl":4537,"Ġbef":4538,"Ġbeard":4539,"Ġbethink":4540,"Ġmeant":4541,"Ġweather":4542,"Ġwept":4543,"ades":4544,"ricians":4545,"Ġstol":4546,"Ġstamp":4547,"Ġrej":4548,"Ġrecom":4549,"Ġrevol":4550,"Ġlion":4551,"aline":4552,"Ġwilling":4553,"Ġwillingly":4554,"Ġnobl":4555,"Ġnobly":4556,"andal":4557,"Ġseason":4558,"Ġsull":4559,"Ġsuck":4560,"Ġspr":4561,"Ġspur":4562,"ĠCo":4563,"ĠCons":4564,"Ġknife":4565,"ĠRos":4566,"ĠRomans":4567,"Ġvows":4568,"Ġcomb":4569,"ĠMay":4570,"ĠMil":4571,"Ġamazed":4572,"Ġconce":4573,"Ġconceit":4574,"Ġconstant":4575,"ember":4576,"Help":4577,"Ġlovely":4578,"Ġswell":4579,"ĠST":4580,"ĠBe":4581,"ĠBer":4582,"Ġunless":4583,"Ġworn":4584,"Ġworthi":4585,"Ġjew":4586,"Ġmuster":4587,"Ġprovo":4588,"ĠPray":4589,"Ġruth":4590,"ĠAd":4591,"ĠApollo":4592,"Ġdisper":4593,"Ġabhor":4594,"Ġroar":4595,"Ġrogue":4596,"Ġtells":4597,"Ġwhereof":4598,"Ġwarlike":4599,"Ġhasty":4600,"Ġfears":4601,"Ġgreatest":4602,"oldier":4603,"Ġparticular":4604,"Ġadver":4605,"Ġcommitted":4606,"Ġclam":4607,"ĠDo":4608,"Ġperj":4609,"Ġperforce":4610,"Ġwrought":4611,"liament":4612,"Ġnorth":4613,"Ġpress":4614,"Ġrap":4615,"Ġraise":4616,"ĠFarewell":4617,"Ġbegun":4618,"forth":4619,"ĠJack":4620,"Ġconsider":4621,"Ġpeers":4622,"love":4623,"Ġwitch":4624,"Ġaccused":4625,"Ġkindly":4626,"Ġcompan":4627,"Ġsmiles":4628,"Ġcounty":4629,"Ġfinds":4630,"Stri":4631,"Ġbraw":4632,"Ġcharged":4633,"Ġpassion":4634,"Clarence":4635,"Ġholds":4636,"GREEN":4637,"Ġstreets":4638,"Ġbuild":4639,"Ġsoundly":4640,"Ġserves":4641,"Ġboots":4642,"Ġadvice":4643,"Ġcurrent":4644,"Ġrevenged":4645,"Ġassured":4646,"Ġsends":4647,"Ġgiving":4648,"Ġwinds":4649,"Ġhanged":4650,"Ġdarest":4651,"Ġintell":4652,"Ġsupposed":4653,"Ġafford":4654,"ALONS":4655,"Whither":4656,"Ġhardly":4657,"Ġprofit":4658,"Ġparliament":4659,"Ġrecord":4660,"Ġveins":4661,"Ġwaste":4662,"Ġstopp":4663,"Until":4664,"Ġpieces":4665,"Ġwait":4666,"Ġgarland":4667,"Ġgrieve":4668,"Ġsky":4669,"Ġforbear":4670,"ĠPomfret":4671,"Ġdirect":4672,"Ġgroans":4673,"Ġthrice":4674,"Ġestate":4675,"erns":4676,"TYRR":4677,"Ġoppos":4678,"Ġdestroy":4679,"About":4680,"Ġurged":4681,"Ġaffections":4682,"Ġfamous":4683,"Ġhaply":4684,"DORSET":4685,"Supp":4686,"Ġlusty":4687,"Ġelder":4688,"Ġstudy":4689,"Ġcounterfeit":4690,"Gentlemen":4691,"Ġarrived":4692,"Ġbehalf":4693,"ĠMarshal":4694,"Ġavoid":4695,"Ġimprisonment":4696,"untsman":4697,"Ġrascal":4698,"Ġtreacherous":4699,"Ġconduct":4700,"Ġprotector":4701,"Ġspecial":4702,"Ġsanctuary":4703,"Ġperpetual":4704,"Ġgrievous":4705,"AEdile":4706,"Ġvirgin":4707,"Ġjourney":4708,"DINAND":4709,"FERDINAND":4710,"atcliff":4711,"ĠConspir":4712,"ALONSO":4713,"TYRREL":4714,";--":4715,"Acc":4716,"Bring":4717,"Coriol":4718,"Keep":4719,"Leave":4720,"Makes":4721,"Vols":4722,"af":4723,"cure":4724,"des":4725,"dig":4726,"eat":4727,"erer":4728,"fess":4729,"fellow":4730,"faced":4731,"grim":4732,"groom":4733,"ib":4734,"iving":4735,"ienn":4736,"lanch":4737,"master":4738,"mory":4739,"maid":4740,"nal":4741,"sha":4742,"ser":4743,"some":4744,"ties":4745,"upt":4746,"vior":4747,"wear":4748,"xeter":4749,"zz":4750,"Ġz":4751,"Ġing":4752,"ĠThen":4753,"Ġtask":4754,"Ġach":4755,"Ġapt":4756,"Ġaunt":4757,"Ġsy":4758,"Ġsal":4759,"Ġsire":4760,"Ġmult":4761,"Ġmaintain":4762,"Ġwing":4763,"Ġwide":4764,"Ġwhip":4765,"Ġwaking":4766,"reen":4767,"Ġbade":4768,"isbury":4769,"Ġfi":4770,"Ġfood":4771,"Ġfrow":4772,"Ġfun":4773,"Ġfeet":4774,"Ġfires":4775,"Ġfancy":4776,"erity":4777,"erby":4778,"itation":4779,"onci":4780,"Ġdow":4781,"Ġdim":4782,"Ġdri":4783,"Ġdying":4784,"Ġcher":4785,"Ġcaught":4786,"Ġcere":4787,"esar":4788,"essel":4789,"enant":4790,"Ġnail":4791,"Ġlin":4792,"Ġyond":4793,"Ġyoke":4794,"Ġthird":4795,"Ġhor":4796,"Ġhie":4797,"Ġpi":4798,"Ġpot":4799,"Ġpound":4800,"Ġpurse":4801,"Ġpier":4802,"vet":4803,"ative":4804,"sell":4805,"Ġinqu":4806,"etite":4807,"eder":4808,"utenant":4809,"Ġmelt":4810,"Ġmelanch":4811,"Ġfors":4812,"Ġforced":4813,"Ġforfeit":4814,"ourse":4815,"ourth":4816,"Ġevent":4817,"adv":4818,"aded":4819,"rick":4820,"Ġsting":4821,"Ġstro":4822,"Ġstout":4823,"Ġstret":4824,"Ġstroke":4825,"Ġreck":4826,"rac":4827,"ales":4828,"alisbury":4829,"Ġsore":4830,"Ġsooth":4831,"Ġdeceit":4832,"roll":4833,"ested":4834,"earer":4835,"amb":4836,"ams":4837,"aming":4838,"Ġsees":4839,"Ġalliance":4840,"Ġsue":4841,"ruction":4842,"ellion":4843,"Ġsple":4844,"ilence":4845,"Ġknaves":4846,"Ġvessel":4847,"ulate":4848,"arts":4849,"nty":4850,"ĠExeter":4851,"icy":4852,"Ġconfe":4853,"Ġblunt":4854,"ĠGive":4855,"ares":4856,"ĠLe":4857,"Ġsaying":4858,"ĠSoldier":4859,"Ġunjust":4860,"Ġunhappy":4861,"ignty":4862,"LIS":4863,"Ġgraves":4864,"ĠWell":4865,"Ġenforce":4866,"deem":4867,"ĠAll":4868,"ĠAway":4869,"irect":4870,"harge":4871,"Ġoffended":4872,"Ġdissem":4873,"Ġdisgrace":4874,"Ġalack":4875,"Ġalike":4876,"Ġalthough":4877,"Ġabide":4878,"Ġaboard":4879,"Noble":4880,"Ġrose":4881,"Ġexchange":4882,"Soft":4883,"ages":4884,"Ġdesires":4885,"Ġdescend":4886,"Ġslaves":4887,"Ġflood":4888,"Ġflatt":4889,"Ġtwain":4890,"ĠTitus":4891,"Ġbetray":4892,"Ġbetimes":4893,"Ġnewly":4894,"Ġparting":4895,"Ġpartly":4896,"Ġcalled":4897,"Ġcommons":4898,"Ġcommission":4899,"Ġstanding":4900,"Ġclim":4901,"ĠDe":4902,"ĠDorset":4903,"ĠDerby":4904,"ullus":4905,"Ġwrink":4906,"Ġbearing":4907,"aints":4908,"Ġrare":4909,"thee":4910,"ĠFroth":4911,"Ġappeal":4912,"Ġappetite":4913,"Ġcontempt":4914,"Ġwhisper":4915,"Ġimage":4916,"ĠMarian":4917,"forced":4918,"Ġrust":4919,"Ġruled":4920,"Ġhousehold":4921,"Ġrestra":4922,"ercy":4923,"Ġsets":4924,"clam":4925,"osing":4926,"Ġresist":4927,"Ġtrick":4928,"Ġputs":4929,"Ġpowerful":4930,"Ġchase":4931,"Ġcharac":4932,"Ġsmell":4933,"Ġtreasure":4934,"Ġbrace":4935,"iety":4936,"Ġmistrust":4937,"Ġnative":4938,"Ġboys":4939,"Ġweeps":4940,"Ġpatricians":4941,"Ġbelow":4942,"Lords":4943,"Ġfalsehood":4944,"Ġsovereignty":4945,"ouchs":4946,"Ġassure":4947,"Ġsecure":4948,"Twere":4949,"Ġsometimes":4950,"Ġoaths":4951,"Ġmerit":4952,"upon":4953,"Ġfaithful":4954,"Ġdefence":4955,"Ġaffli":4956,"Ġsurely":4957,"should":4958,"Ġsilent":4959,"Ġinstruments":4960,"Cannot":4961,"Ġbeholding":4962,"Ġreconci":4963,"Ġago":4964,"Ġagree":4965,"Ġcorre":4966,"Ġsingle":4967,"Ġbreathed":4968,"Ġforgive":4969,"Ġweakness":4970,"Ġprett":4971,"Ġsickness":4972,"Ġregal":4973,"Ġregard":4974,"Ġmouths":4975,"Ġbooks":4976,"Ġbarren":4977,"Ġbeasts":4978,"Ġtrumpet":4979,"eeming":4980,"Ġpitch":4981,"Ġshield":4982,"Ġunkind":4983,"Ġtempest":4984,"Ġsuspect":4985,"Ġobedient":4986,"Ġreverence":4987,"Ġapparent":4988,"Ġentertainment":4989,"ĠAnti":4990,"Ġdetermined":4991,"Ġhelm":4992,"Ġgently":4993,"Ġholp":4994,"Ġfairest":4995,"Ġtremble":4996,"shire":4997,"Ġstabb":4998,"Ġtyranny":4999,"Ġlength":5000,"Ġpilgrim":5001,"ĠSicilia":5002,"Ġequal":5003,"Ġfashion":5004,"Ġdignity":5005,"Ġcomplex":5006,"Ġcircumst":5007,"yrrel":5008,"Ġaccording":5009,"Ġimpossible":5010,"Ġrejo":5011,"ĠRosaline":5012,"ĠMayor":5013,"ĠMilan":5014,"Volsce":5015,"ienna":5016,"Ġfroward":5017,"Ġmelancholy":5018,"Ġconference":5019,".--":5020,"AD":5021,"Cry":5022,"Cond":5023,"CLE":5024,"Down":5025,"Draw":5026,"Each":5027,"Fl":5028,"FRO":5029,"Fair":5030,"Hail":5031,"IL":5032,"IT":5033,"Im":5034,"Kn":5035,"King":5036,"Lay":5037,"Lie":5038,"Lady":5039,"Many":5040,"OMEN":5041,"PH":5042,"Qu":5043,"Ri":5044,"Sm":5045,"Son":5046,"Somet":5047,"Tush":5048,"UGH":5049,"Warwick":5050,"Ye":5051,"acc":5052,"action":5053,"bod":5054,"bation":5055,"cra":5056,"cary":5057,"cceed":5058,"eb":5059,"eve":5060,"fa":5061,"fold":5062,"foot":5063,"give":5064,"iver":5065,"iam":5066,"kind":5067,"long":5068,"look":5069,"mong":5070,"ns":5071,"nes":5072,"new":5073,"rs":5074,"rat":5075,"rough":5076,"say":5077,"sues":5078,"than":5079,"tic":5080,"teen":5081,"tles":5082,"uries":5083,"war":5084,"weal":5085,"xe":5086,"Ġtim":5087,"Ġtres":5088,"Ġtall":5089,"Ġtakes":5090,"Ġtarry":5091,"Ġtaunt":5092,"here":5093,"Ġaxe":5094,"oubt":5095,"Ġsalt":5096,"Ġsnow":5097,"Ġmir":5098,"Ġmood":5099,"Ġmess":5100,"Ġmirth":5101,"inct":5102,"Ġwid":5103,"Ġwest":5104,"Ġwake":5105,"Ġwink":5106,"hand":5107,"Ġbir":5108,"Ġbuck":5109,"ories":5110,"ering":5111,"erves":5112,"iter":5113,"itable":5114,"onation":5115,"Ġdiffe":5116,"Ġcost":5117,"Ġchall":5118,"Ġciv":5119,"Ġnap":5120,"Ġlent":5121,"Ġline":5122,"Ġlap":5123,"Ġyes":5124,"Ġthir":5125,"Ġthick":5126,"Ġthread":5127,"Ġhorn":5128,"Ġoak":5129,"Ġope":5130,"Ġtoad":5131,"Ġtoil":5132,"Ġtooth":5133,"Ġpee":5134,"Ġpause":5135,"ĠIta":5136,"othes":5137,"stable":5138,"stery":5139,"aning":5140,"omach":5141,"Ġgru":5142,"Ġgaze":5143,"Ġmystery":5144,"Ġinfection":5145,"Ġmemory":5146,"imble":5147,"illy":5148,"illing":5149,"herit":5150,"Ġste":5151,"Ġstick":5152,"Ġstumble":5153,"asp":5154,"ases":5155,"Ġrece":5156,"Ġreap":5157,"Ġredeem":5158,"Ġlift":5159,"Ġliken":5160,"alse":5161,"Ġdeb":5162,"Ġdeck":5163,"Ġdecl":5164,"Ġsham":5165,"ushy":5166,"ushes":5167,"Ġsell":5168,"Ġseiz":5169,"Ġseldom":5170,"Ġsepul":5171,"Through":5172,"Ġsuper":5173,"Ġsuitor":5174,"Ġsucceed":5175,"thing":5176,"Ġlover":5177,"Ġlovest":5178,"Ġspl":5179,"Ġspy":5180,"Ġfact":5181,"Ġfawn":5182,"Ġnegle":5183,"Ġknot":5184,"Ġvar":5185,"Ġvill":5186,"Ġvol":5187,"Ġshri":5188,"ulf":5189,"seless":5190,"artius":5191,"Ġmanif":5192,"Ġmanage":5193,"ĠMin":5194,"ical":5195,"icles":5196,"ĠLau":5197,"ĠLartius":5198,"Ġhated":5199,"LOUGH":5200,"ersu":5201,"Ġswain":5202,"Ġbran":5203,"pping":5204,"ĠSalisbury":5205,"Ġunwill":5206,"ĠHis":5207,"ĠHeaven":5208,"ĠVen":5209,"ĠVienna":5210,"Whether":5211,"Ġjot":5212,"cies":5213,"Ġshoulder":5214,"ĠPerd":5215,"ĠWIL":5216,"Ġdeaths":5217,"Ġheartily":5218,"Ġwholesome":5219,"Ġmarks":5220,"Ġoffic":5221,"Ġdisple":5222,"Ġdisgu":5223,"Ġabused":5224,"Ġexerc":5225,"Ġdescent":5226,"Ġripe":5227,"Ġride":5228,"ased":5229,"Ġleague":5230,"Ġslip":5231,"Ġwarri":5232,"ĠTar":5233,"ĠTell":5234,"ĠTyrrel":5235,"Ġbred":5236,"Ġheavenly":5237,"Ġclothes":5238,"Ġsweeter":5239,"Ġperhaps":5240,"Ġscold":5241,"Ġscandal":5242,"Ġrain":5243,"Ġrail":5244,"Ġraised":5245,"Ġappointed":5246,"Ġwhit":5247,"Ġremorse":5248,"Ġremove":5249,"Ġremoved":5250,"ĠLords":5251,"Ġbegan":5252,"Ġrepose":5253,"Ġharsh":5254,"Ġkeeper":5255,"Ġaccident":5256,"Ġaccursed":5257,"Ġyounger":5258,"Ġyoungest":5259,"Ġprick":5260,"Ġdearly":5261,"Ġsubtle":5262,"RIAN":5263,"Ġrights":5264,"fortune":5265,"Ġminds":5266,"Ġcoff":5267,"Ġdevotion":5268,"Ġmischance":5269,"Ġmeeting":5270,"Ġafternoon":5271,"Ġcareless":5272,"Uncle":5273,"Ġgriefs":5274,"Anon":5275,"Ġhuman":5276,"Ġcounc":5277,"Ġgrat":5278,"Ġretire":5279,"Ġserved":5280,"Ġadventure":5281,"Ġcurt":5282,"Ġcountrymen":5283,"Ġvirtues":5284,"Ġwindows":5285,"itten":5286,"Ġcraves":5287,"Ġcraft":5288,"Ġbeauteous":5289,"Ġstranger":5290,"Ġyielded":5291,"Ġsupply":5292,"Ġcommonweal":5293,"Ġmonstrous":5294,"Ġmonument":5295,"Didst":5296,"soever":5297,"Ġgrowing":5298,"Ġheirs":5299,"Ġvisage":5300,"Ġpoints":5301,"Ġstronger":5302,"Ġtrusty":5303,"Ġinstruction":5304,"Ġinfant":5305,"Ġforeign":5306,"Ġincen":5307,"Ġfeeling":5308,"Ġburst":5309,"Ġplainly":5310,"Ġabsolute":5311,"Ġfourteen":5312,"Ġselfsame":5313,"Ġfrowns":5314,"Ġdirection":5315,"Ġredress":5316,"Ġsatisfy":5317,"Ġservants":5318,"ollow":5319,"Ġblem":5320,"Ġbridegroom":5321,"Ġbabes":5322,"Ġgallant":5323,"Ġrebellion":5324,"Ġwriting":5325,"Ġfierce":5326,"Ġshadows":5327,"Ġpleasing":5328,"Ġmodest":5329,"Ġmodesty":5330,"Ġobject":5331,"Ġforswear":5332,"Ġuncles":5333,"Ġrefuse":5334,"Among":5335,"banished":5336,"Ġbigger":5337,"Ġfeather":5338,"Ġdetermine":5339,"Betw":5340,"Better":5341,"Ġchaste":5342,"otted":5343,"Ġfairer":5344,"Ġshrewd":5345,"Ġdismal":5346,"Ġtrembling":5347,"Ġacquaint":5348,"Ġprophet":5349,"Ġedge":5350,"Ġeagle":5351,"Ġshroud":5352,"Ġsubstit":5353,"othecary":5354,"Ġsteeds":5355,"Ġiron":5356,"Ġtorture":5357,"Ġrenowned":5358,"Ġdearest":5359,"Return":5360,"Remember":5361,"Ġwondrous":5362,"Ġballad":5363,"Ġpenitent":5364,"Ġpolicy":5365,"Ġrepeal":5366,"Ġadversaries":5367,"Ġpurchase":5368,"Commend":5369,"Ġprivilege":5370,"Ġrevolt":5371,"Ġsullen":5372,"Ġconceal":5373,"ĠConspirator":5374,"Coriolanus":5375,"Ġdowry":5376,"Ġpierce":5377,"Ġstrokes":5378,"Ġflatterer":5379,"ĠMariana":5380,"ouchsafe":5381,"ADRIAN":5382,"CLEOMEN":5383,"FROTH":5384,"Ġtrespass":5385,"Ġcivil":5386,"Ġthirty":5387,"ĠItaly":5388,"Ġsepulch":5389,"LOUGHBY":5390,"ĠPerdita":5391,"ĠWILLOUGHBY":5392,"Ġexercise":5393,"CLEOMENES":5394,"AM":5395,"Aw":5396,"BAR":5397,"Courage":5398,"Dare":5399,"Find":5400,"Get":5401,"Men":5402,"Mist":5403,"Making":5404,"Methought":5405,"NARD":5406,"Oh":5407,"Pur":5408,"Petruchio":5409,"Que":5410,"Rather":5411,"RUT":5412,"Se":5413,"Sound":5414,"Tranio":5415,"UR":5416,"Villain":5417,"Wit":5418,"ax":5419,"br":5420,"bble":5421,"boy":5422,"car":5423,"cest":5424,"cue":5425,"cence":5426,"done":5427,"ders":5428,"duke":5429,"ext":5430,"from":5431,"gy":5432,"got":5433,"ghan":5434,"great":5435,"gentle":5436,"iar":5437,"ips":5438,"mas":5439,"made":5440,"nken":5441,"nicious":5442,"oon":5443,"oes":5444,"off":5445,"phy":5446,"pret":5447,"pardon":5448,"rity":5449,"ratch":5450,"sire":5451,"scal":5452,"tend":5453,"ug":5454,"vive":5455,"vied":5456,"ĠAs":5457,"Ġtou":5458,"Ġtro":5459,"Ġtig":5460,"Ġtail":5461,"Ġale":5462,"Ġages":5463,"Ġsn":5464,"Ġmain":5465,"Ġmil":5466,"Ġmethought":5467,"inate":5468,"Ġward":5469,"Ġwakes":5470,"Ġbon":5471,"Ġbore":5472,"Ġbag":5473,"Ġbrown":5474,"Ġborrow":5475,"Ġbott":5476,"ision":5477,"orough":5478,"Ġfish":5479,"Ġfret":5480,"Ġfix":5481,"Ġfreed":5482,"ital":5483,"itiff":5484,"onest":5485,"Ġdate":5486,"Ġdower":5487,"Ġcrow":5488,"esu":5489,"enge":5490,"Ġnet":5491,"Ġnest":5492,"Ġnice":5493,"Ġnumb":5494,"Ġnupt":5495,"Ġlur":5496,"Ġlance":5497,"Ġlower":5498,"Ġluck":5499,"Ġyon":5500,"Ġthin":5501,"Ġthie":5502,"Ġthirst":5503,"Ġthumb":5504,"Ġhom":5505,"Ġhind":5506,"Ġhig":5507,"Ġhire":5508,"Ġhoney":5509,"Ġtoy":5510,"Ġtomorrow":5511,"Ġped":5512,"Ġpear":5513,"Ġpath":5514,"Ġpage":5515,"hath":5516,"ĠIt":5517,"Ġheat":5518,"Ġheels":5519,"owl":5520,"ingers":5521,"Ġgid":5522,"atri":5523,"atest":5524,"Ġbere":5525,"Ġbefall":5526,"sey":5527,"Ġink":5528,"cels":5529,"Ġhare":5530,"Ġhaught":5531,"Ġhabit":5532,"ayed":5533,"Ġnoted":5534,"chief":5535,"keley":5536,"Ġweal":5537,"Ġwealth":5538,"oops":5539,"hern":5540,"Ġwithdraw":5541,"rif":5542,"rich":5543,"rible":5544,"Ġstale":5545,"Ġstern":5546,"Ġstomach":5547,"order":5548,"INE":5549,"rage":5550,"Ġlivery":5551,"Ġliking":5552,"urg":5553,"urrey":5554,"Ġdeaf":5555,"Ġshare":5556,"Ġshapes":5557,"Ġdove":5558,"Ġdogs":5559,"Ġdozen":5560,"Ġwills":5561,"ushing":5562,"Ġsuits":5563,"Ġhers":5564,"Ġanointed":5565,"ardel":5566,"Ġspit":5567,"Ġspect":5568,"Ġshallow":5569,"ĠCounty":5570,"Ġneat":5571,"Ġvent":5572,"Ġshook":5573,"Ġshines":5574,"Ġupright":5575,"Ġgoods":5576,"Ġprime":5577,"Ġamiss":5578,"icate":5579,"icio":5580,"Ġconceive":5581,"iege":5582,"Ġblast":5583,"ĠGree":5584,"emper":5585,"Ġgodd":5586,"aughan":5587,"Ġsirs":5588,"ola":5589,"olved":5590,"ĠLicio":5591,"Ġthereby":5592,"ept":5593,"eping":5594,"Ġswore":5595,"Ġsweat":5596,"Ġorn":5597,"ĠSc":5598,"ĠSp":5599,"ĠSee":5600,"ĠShore":5601,"ĠOff":5602,"ĠBr":5603,"ĠBy":5604,"Ġarrest":5605,"Ġlets":5606,"Ġunst":5607,"Ġunse":5608,"Ġunfe":5609,"Ġworm":5610,"ĠVal":5611,"aker":5612,"Ġhop":5613,"Ġlikely":5614,"Ġproclam":5615,"ĠPlease":5616,"ĠPETER":5617,"Ġsav":5618,"Ġmadness":5619,"umbling":5620,"Ġplaces":5621,"iced":5622,"ĠWilt":5623,"Ġeng":5624,"unate":5625,"Ġrans":5626,"Ġtrunk":5627,"Ġsomewhat":5628,"harged":5629,"orney":5630,"Ġoffices":5631,"Ġdisgra":5632,"Ġalms":5633,"Ġabuse":5634,"Ġexam":5635,"Ġtelling":5636,"Ġlooked":5637,"Ġthinking":5638,"Ġwhereon":5639,"agues":5640,"Whereto":5641,"Ġflow":5642,"Ġflint":5643,"Ġflourish":5644,"Ġfearing":5645,"bert":5646,"Ġbreed":5647,"Ġgreatness":5648,"Ġparted":5649,"Ġpernicious":5650,"Ġtroop":5651,"Ġtroops":5652,"lied":5653,"Ġscatter":5654,"ainty":5655,"ables":5656,"ĠFare":5657,"Ġappea":5658,"Ġgraced":5659,"Ġbegu":5660,"Ġbeget":5661,"rank":5662,"Ġchildish":5663,"Ġreply":5664,"Ġconsort":5665,"loves":5666,"ercing":5667,"cheth":5668,"Ġtrif":5669,"ontes":5670,"Ġprice":5671,"Ġsubd":5672,"Ġbacks":5673,"twill":5674,"Ġforthwith":5675,"Ġbank":5676,"Ġcheap":5677,"Ġcharm":5678,"Ġlaws":5679,"Ġconfirm":5680,"Ġcoll":5681,"Ġlightning":5682,"Does":5683,"Ġroyalty":5684,"ĠAnne":5685,"Ġbesides":5686,"Ġhappily":5687,"Ġsorrows":5688,"Ġcareful":5689,"Ġlesser":5690,"Ġstrive":5691,"Ġsleeping":5692,"Ġdrag":5693,"Ġserp":5694,"Ġboast":5695,"pense":5696,"Ġwanting":5697,"Ġbreathing":5698,"Ġdiscourse":5699,"Ġsenseless":5700,"Ġbeaut":5701,"Ġhangs":5702,"Ġdepend":5703,"hamed":5704,"Ġgrew":5705,"Ġspoil":5706,"Ġdrunken":5707,"Ġaffords":5708,"Ġmetal":5709,"Ġsooner":5710,"IDAM":5711,"Ġsights":5712,"Ġmonster":5713,"Ġmonarch":5714,"acles":5715,"Ġsadness":5716,"Ġsuffic":5717,"Ġcarried":5718,"Ġexecute":5719,"Ġexecuted":5720,"Ġminute":5721,"Ġvel":5722,"Ġcoronation":5723,"Ġpraises":5724,"Ġwaves":5725,"Ġburnt":5726,"Ġliberal":5727,"Ġburns":5728,"Ġburning":5729,"Ġproport":5730,"Ġblessing":5731,"Ġbleeding":5732,"Ġestim":5733,"Ġbitterly":5734,"mbles":5735,"speak":5736,"Ġlimit":5737,"Ġlimbs":5738,"Ġsacrif":5739,"Ġsuccession":5740,"Ġactions":5741,"Ġcaps":5742,"Ġviolence":5743,"Ġtriumphant":5744,"Ġmidnight":5745,"Ġrebels":5746,"Ġpossession":5747,"Play":5748,"Ġtorch":5749,"Ġcaitiff":5750,"Ġpitiful":5751,"Ġinjury":5752,"Ġurge":5753,"Ġexecutioner":5754,"March":5755,"Marcius":5756,"Ġmeddle":5757,"Ġoccup":5758,"Ġnobility":5759,"Ġchurchyard":5760,"Ġignorance":5761,"Ġsaints":5762,"headed":5763,"ĠCaesar":5764,"Ġrank":5765,"Ġguests":5766,"ĠWilliam":5767,"Ġhungry":5768,"Ġunfold":5769,"Ġmonths":5770,"Ġextremity":5771,"Ġinclined":5772,"Ġcovert":5773,"Ġjoints":5774,"Ġprevented":5775,"Ġtyrann":5776,"Ġlengthen":5777,"Ġwager":5778,"Ġnecessity":5779,"Ġsubstance":5780,"Ġescape":5781,"Ġsenses":5782,"Ġstatue":5783,"Ġconjure":5784,"Ġbands":5785,"Ġweapon":5786,"Ġsteps":5787,"Ġangel":5788,"Ġtransport":5789,"Ġthreatening":5790,"Ġwolf":5791,"Ġcensure":5792,"ribunes":5793,"ARCHIDAM":5794,"ĠDido":5795,"ĠElbow":5796,"Ġapprehend":5797,"Ġimmortal":5798,"Ġtapster":5799,"Ġmoral":5800,"ĠBerkeley":5801,"Ġjewel":5802,"Ġruthless":5803,"Ġdispersed":5804,"Ġclamour":5805,"Ġrapier":5806,"Ġcompanion":5807,"Strike":5808,"Ġopposite":5809,"Ġzeal":5810,"Ġcherish":5811,"Ġstretch":5812,"ambio":5813,"Ġspleen":5814,"Ġcharacter":5815,"Ġprettiest":5816,"Ġrejoice":5817,"Ġbirds":5818,"Ġchallenge":5819,"Ġpeevish":5820,"Ġlikeness":5821,"ĠLaurence":5822,"Ġofficers":5823,"Ġwarriors":5824,"Ġcommonwealth":5825,"Ġsepulchre":5826,"BARNARD":5827,"Queen":5828,"RUTLAND":5829,"scalus":5830,"Ġbottom":5831,"Ġnuptial":5832,"Ġgiddy":5833,"ĠOfficer":5834,"ĠWiltshire":5835,"ARCHIDAMUS":5836,"BARNARDINE":5837,"ATER":5838,"Add":5839,"Bre":5840,"Bra":5841,"BAN":5842,"CRO":5843,"Content":5844,"Ever":5845,"Eng":5846,"Else":5847,"EPH":5848,"Full":5849,"False":5850,"Follow":5851,"GO":5852,"Ga":5853,"Gard":5854,"Gentleman":5855,"Hic":5856,"Henry":5857,"Hortensio":5858,"Lu":5859,"Live":5860,"Mis":5861,"MOR":5862,"Much":5863,"Name":5864,"Old":5865,"Patience":5866,"Persu":5867,"Saw":5868,"Six":5869,"SIR":5870,"TON":5871,"Toward":5872,"TMOR":5873,"Virt":5874,"Wr":5875,"WES":5876,"Woe":5877,"Women":5878,"WATER":5879,"Yield":5880,"ZWATER":5881,"ald":5882,"aven":5883,"back":5884,"cor":5885,"cus":5886,"call":5887,"cap":5888,"cont":5889,"cons":5890,"ded":5891,"dal":5892,"fri":5893,"gged":5894,"horse":5895,"iban":5896,"light":5897,"may":5898,"nant":5899,"pray":5900,"ront":5901,"sen":5902,"vided":5903,"wd":5904,"wing":5905,"water":5906,"zed":5907,"Ġice":5908,"Ġought":5909,"ĠThy":5910,"Ġeter":5911,"ĠQueen":5912,"Ġtard":5913,"Ġtack":5914,"Ġtree":5915,"Ġtied":5916,"Ġtired":5917,"Ġtakest":5918,"Ġah":5919,"Ġaud":5920,"Ġaged":5921,"oured":5922,"Ġsed":5923,"Ġsess":5924,"Ġsau":5925,"Ġsings":5926,"Ġsought":5927,"Ġsides":5928,"Ġsurp":5929,"Ġsilly":5930,"Ġmat":5931,"Ġmour":5932,"Ġmould":5933,"iners":5934,"Ġwet":5935,"Ġwave":5936,"Ġwaked":5937,"reet":5938,"reant":5939,"habit":5940,"Ġbay":5941,"Ġbill":5942,"Ġbent":5943,"Ġbru":5944,"Ġbol":5945,"Ġbalm":5946,"ishes":5947,"isement":5948,"orth":5949,"oriz":5950,"Ġfin":5951,"Ġfant":5952,"Ġfray":5953,"Ġfever":5954,"Ġfelt":5955,"Ġfardel":5956,"erily":5957,"itch":5958,"oned":5959,"onus":5960,"onstant":5961,"Ġcat":5962,"Ġcent":5963,"Ġcook":5964,"envol":5965,"Ġnar":5966,"Ġlour":5967,"Ġlun":5968,"arm":5969,"Ġomit":5970,"Ġtops":5971,"Ġpor":5972,"Ġpill":5973,"Ġpent":5974,"Ġphi":5975,"Ġpick":5976,"Ġpace":5977,"Ġpaint":5978,"Ġpaid":5979,"Ġpush":5980,"Ġpalm":5981,"Ġpomp":5982,"ĠIn":5983,"Ġhera":5984,"Ġheight":5985,"omes":5986,"Ġgn":5987,"Ġgap":5988,"Ġgains":5989,"Ġgoose":5990,"athe":5991,"athed":5992,"Ġbeams":5993,"sec":5994,"seem":5995,"Ġinv":5996,"Ġhail":5997,"iring":5998,"ednes":5999,"uts":6000,"utch":6001,"Ġmew":6002,"Ġmemb":6003,"Ġissu":6004,"Ġforty":6005,"Ġweek":6006,"ently":6007,"riel":6008,"Ġstead":6009,"Ġhist":6010,"Ġrend":6011,"Ġrear":6012,"Ġreach":6013,"Ġrevel":6014,"raid":6015,"Ġlions":6016,"Ġlikes":6017,"Ġlivest":6018,"urgh":6019,"urtis":6020,"alter":6021,"Ġsoil":6022,"Ġsoci":6023,"Ġaspect":6024,"Ġashamed":6025,"Ġdem":6026,"Ġdepose":6027,"rog":6028,"ARLIS":6029,"hire":6030,"verty":6031,"Ġbutt":6032,"Ġsevere":6033,"Ġseated":6034,"Thine":6035,"Things":6036,"Ġalleg":6037,"Ġherd":6038,"three":6039,"Ġanch":6040,"tering":6041,"Ġload":6042,"Ġlock":6043,"Ġlovers":6044,"ellows":6045,"Ġspread":6046,"Ġourself":6047,"Ġfavours":6048,"ilful":6049,"iliar":6050,"ĠCurtis":6051,"ĠCARLIS":6052,"ĠRatcliff":6053,"ĠRaven":6054,"Ġvast":6055,"ORGE":6056,"Ġshru":6057,"Ġshrift":6058,"arted":6059,"ĠMistress":6060,"ĠEm":6061,"ĠEly":6062,"ĠELY":6063,"ĠEscalus":6064,"Ġamain":6065,"Ġamends":6066,"Ġambit":6067,"Ġamorous":6068,"Ġconsequ":6069,"iece":6070,"ĠGreen":6071,"Ġshel":6072,"Ġgoss":6073,"arers":6074,"olks":6075,"ĠLook":6076,"Ġknowing":6077,"resh":6078,"Ġswears":6079,"Ġbrat":6080,"ĠShall":6081,"ĠSurrey":6082,"ĠSCRO":6083,"ĠOur":6084,"ĠBushy":6085,"ĠBurg":6086,"Ġarray":6087,"Ġune":6088,"Ġunm":6089,"Ġunre":6090,"igent":6091,"igonus":6092,"ĠHim":6093,"ĠHark":6094,"ĠHuntsman":6095,"ĠVaughan":6096,"elsh":6097,"eliver":6098,"LIBAN":6099,"Ġgrain":6100,"Ġhoar":6101,"Ġlikewise":6102,"Ġproved":6103,"Ġprocess":6104,"Ġprodig":6105,"umed":6106,"ĠWas":6107,"ĠWould":6108,"ĠWelsh":6109,"isting":6110,"Ġenc":6111,"uns":6112,"Ġrate":6113,"Ġrouse":6114,"Ġpoverty":6115,"Ġspeaking":6116,"Ġoutrage":6117,"ELAND":6118,"ickle":6119,"CALIBAN":6120,"Withdraw":6121,"igned":6122,"Ġmars":6123,"Ġmarvel":6124,"Ġmarvell":6125,"Ġdisin":6126,"Ġdisease":6127,"Ġabund":6128,"Ġrobb":6129,"Ġexcept":6130,"agot":6131,"aged":6132,"Ġdesc":6133,"Ġriches":6134,"Whereof":6135,"Ġslight":6136,"Ġslipp":6137,"Ġflat":6138,"Ġbetide":6139,"Ġbread":6140,"Behold":6141,"Ġcouple":6142,"Ġparties":6143,"Ġpartner":6144,"idered":6145,"Ġclock":6146,"Ġprefer":6147,"Ġsweetly":6148,"ĠDian":6149,"ulls":6150,"Ġwritten":6151,"Ġscratch":6152,"Ġpresume":6153,"Ġpreserve":6154,"Ġnights":6155,"Ġworldly":6156,"perience":6157,"Ġrack":6158,"Ġraven":6159,"them":6160,"ably":6161,"ĠFIT":6162,"Ġdownright":6163,"Ġcontro":6164,"BAGO":6165,"ranch":6166,"Ġimper":6167,"Ġreputation":6168,"Ġafraid":6169,"Ġmightst":6170,"Ġstays":6171,"Ġrue":6172,"Ġleg":6173,"Ġlect":6174,"Ġlewd":6175,"loso":6176,"Ġrestore":6177,"Ġentrance":6178,"Ġtricks":6179,"Ġmoves":6180,"Ġbestow":6181,"Ġaccom":6182,"Ġended":6183,"Ġpurge":6184,"Ġpurple":6185,"Ġputting":6186,"Prove":6187,"Proceed":6188,"Proclaim":6189,"Ġsmil":6190,"Ġsmother":6191,"Ġtrain":6192,"Ġtravell":6193,"Ġbidding":6194,"Ġdrew":6195,"Ġearthly":6196,"Ġcouldst":6197,"Ġtren":6198,"Ġhopeful":6199,"GEORGE":6200,"Ġbrains":6201,"Ġcheque":6202,"Ġbridal":6203,"Ġconfound":6204,"being":6205,"Ġcop":6206,"Ġcoat":6207,"Ġmisfortune":6208,"Ġlanded":6209,"blood":6210,"Ġfalcon":6211,"Ġfalls":6212,"Ġbusy":6213,"Another":6214,"Ġstrict":6215,"Ġcounsell":6216,"Ġcourtier":6217,"Ġcourteous":6218,"Ġbuzz":6219,"Ġattain":6220,"Ġattorney":6221,"erest":6222,"Ġsounds":6223,"Ġsounded":6224,"Ġretired":6225,"Ġadvised":6226,"Ġrevenges":6227,"Ġstraw":6228,"Although":6229,"Ġprompt":6230,"Ġcram":6231,"Ġcontents":6232,"Ġvillains":6233,"Ġinteg":6234,"Ġkisses":6235,"aptain":6236,"Ġyields":6237,"upid":6238,"Ġwinters":6239,"Ġlambs":6240,"Ġbeats":6241,"Ġbeaten":6242,"acy":6243,"undy":6244,"unday":6245,"ventry":6246,"Ġchosen":6247,"Hadst":6248,"Ġentreaties":6249,"Ġdevilish":6250,"Ġboldly":6251,"Ġwooing":6252,"Ġinfer":6253,"Becomes":6254,"guard":6255,"Ġreadiness":6256,"Ġprofane":6257,"Ġdivor":6258,"Ġyouthful":6259,"Comes":6260,"Comfort":6261,"Ġterm":6262,"Ġsuitors":6263,"Ġstops":6264,"Ġcloudy":6265,"Ġmusicians":6266,"Ġdroop":6267,"Ġwax":6268,"Ġgrieves":6269,"Ġgrieved":6270,"chers":6271,"Ġskill":6272,"Ġsignal":6273,"Ġsignify":6274,"Ġcheerly":6275,"Ġprophes":6276,"Ġextreme":6277,"Ġtroubl":6278,"Ġsatisfaction":6279,"Ġdarkness":6280,"Ġexped":6281,"Ġflattering":6282,"Ġembra":6283,"Ġesteem":6284,"Ġbowels":6285,"Ġfrail":6286,"Ġhurl":6287,"Ġtowns":6288,"Ġsuddenly":6289,"spurgh":6290,"Ġcowardly":6291,"Ġlamentable":6292,"Ġowes":6293,"Ġeaten":6294,"Ġkinsmen":6295,"Ġmiddle":6296,"Ġdestruction":6297,"Ġdeparture":6298,"Plantagenet":6299,"Whiles":6300,"Ġfondly":6301,"Ġusurping":6302,"Above":6303,"ossess":6304,"Ġmildness":6305,"Ġinsol":6306,"Ġgladly":6307,"mediate":6308,"Ġapace":6309,"Ġships":6310,"Ġshop":6311,"Ġshoes":6312,"Ġobsequ":6313,"Ġtreasons":6314,"Ġcondemned":6315,"Ġtroubled":6316,"Ġlists":6317,"Ġstorms":6318,"Ġtemples":6319,"Ġmutinous":6320,"Ġpetty":6321,"Ġconquest":6322,"Ġgrandam":6323,"Ġgrandsire":6324,"Ġeldest":6325,"ĠAntigonus":6326,"Disp":6327,"EXTON":6328,"Ġbastards":6329,"Ġhelps":6330,"Ġamongst":6331,"Ġprovide":6332,"Ġgreeting":6333,"Ġministers":6334,"Neither":6335,"where":6336,"Ġconclud":6337,"Ġconclude":6338,"Ġdismiss":6339,"Officer":6340,"Ġimagine":6341,"Ġacquainted":6342,"Ġgifts":6343,"Ġghostly":6344,"Ġbehavior":6345,"Ġeleven":6346,"Ġrobes":6347,"Ġdesigns":6348,"Ġtempted":6349,"Ġheavier":6350,"Perhaps":6351,"Ġerrand":6352,"Ġwandering":6353,"Ġdetest":6354,"Ġweapons":6355,"Ġvanity":6356,"Ġaccusation":6357,"Shalt":6358,"Ġfrost":6359,"Ġpersuade":6360,"Ġdiscontented":6361,"Appear":6362,"Ġtestim":6363,"Ġhazard":6364,"ĠCaliban":6365,"ĠBlunt":6366,"Ġkeys":6367,"Ġinstantly":6368,"iveness":6369,"Ġfigure":6370,"Ġfurnish":6371,"Ġparents":6372,"Ġrecompense":6373,"Ġnobleness":6374,"ĠCoventry":6375,"ĠSTEPH":6376,"Ġprovoked":6377,"Ġintelligence":6378,"Ġfiend":6379,"Ġceremon":6380,"advised":6381,"Ġreckon":6382,"ĠLeontes":6383,"Ġreconcile":6384,"Ġunkindness":6385,"Ġpilgrimage":6386,"Ġcomplexion":6387,"Ġseized":6388,"Ġneglect":6389,"Ġvarlet":6390,"ĠMinola":6391,"ĠVenice":6392,"Ġblemish":6393,"Ġfreedom":6394,"Ġthieves":6395,"Ġgoddess":6396,"Ġproclamation":6397,"Ġsavage":6398,"Ġransom":6399,"Ġexample":6400,"Ġvelvet":6401,"Ġproportion":6402,"Ġtyrannous":6403,"Gaoler":6404,"Gardener":6405,"Lucentio":6406,"Towards":6407,"TMORELAND":6408,"WESTMORELAND":6409,"envolio":6410,"Ġnarrow":6411,"Ġphiloso":6412,"Ġherald":6413,"ednesday":6414,"Ġmembers":6415,"Ġallegiance":6416,"ĠCARLISLE":6417,"ĠRavenspurgh":6418,"Ġambitious":6419,"ĠSCROOP":6420,"ĠBurgundy":6421,"ĠFITZWATER":6422,"BAGOT":6423,"Ġintegrity":6424,"ĠSTEPHEN":6425,"Ġphilosophy":6426,"Ac":6427,"Af":6428,"Bound":6429,"Ca":6430,"Cont":6431,"Camillo":6432,"Catesby":6433,"Dep":6434,"Div":6435,"Fore":6436,"Five":6437,"Fall":6438,"Foul":6439,"Fetch":6440,"Gra":6441,"Gives":6442,"Grace":6443,"Hie":6444,"Harry":6445,"Hang":6446,"Justice":6447,"Kind":6448,"Lies":6449,"Lead":6450,"Mur":6451,"Part":6452,"Peter":6453,"Rel":6454,"Sit":6455,"Send":6456,"Ten":6457,"Tra":6458,"Talk":6459,"Touch":6460,"Teach":6461,"Truly":6462,"Vouchsafe":6463,"Verily":6464,"Wert":6465,"Zounds":6466,"av":6467,"ape":6468,"aving":6469,"bes":6470,"bour":6471,"bell":6472,"board":6473,"cat":6474,"cock":6475,"down":6476,"ech":6477,"eves":6478,"gic":6479,"gues":6480,"hors":6481,"ipt":6482,"join":6483,"kest":6484,"know":6485,"lor":6486,"len":6487,"low":6488,"lain":6489,"last":6490,"lace":6491,"lock":6492,"liness":6493,"longs":6494,"met":6495,"miss":6496,"mistress":6497,"nib":6498,"ob":6499,"oble":6500,"open":6501,"post":6502,"pite":6503,"pular":6504,"pothecary":6505,"ris":6506,"rish":6507,"roof":6508,"sent":6509,"tin":6510,"ted":6511,"tell":6512,"tong":6513,"tied":6514,"trees":6515,"uge":6516,"uild":6517,"ually":6518,"vir":6519,"wh":6520,"wer":6521,"was":6522,"work":6523,"women":6524,"ycor":6525,"ĠFirst":6526,"Ġtrow":6527,"Ġtie":6528,"Ġtorn":6529,"Ġtaking":6530,"heard":6531,"Ġafe":6532,"Ġsow":6533,"Ġsand":6534,"Ġsong":6535,"Ġsixt":6536,"Ġmom":6537,"Ġmas":6538,"Ġmouse":6539,"Ġmates":6540,"Ġmurde":6541,"Ġmask":6542,"inu":6543,"inal":6544,"inies":6545,"inces":6546,"Ġwore":6547,"Ġwipe":6548,"had":6549,"hage":6550,"Ġbot":6551,"Ġbul":6552,"Ġbows":6553,"Ġbail":6554,"Ġbounty":6555,"Ġfre":6556,"Ġfan":6557,"Ġfif":6558,"Ġfil":6559,"Ġfrant":6560,"Ġfount":6561,"Ġfift":6562,"Ġfingers":6563,"Ġfrank":6564,"Ġfolks":6565,"onio":6566,"Ġdot":6567,"Ġdine":6568,"Ġdried":6569,"Ġdined":6570,"Ġdash":6571,"Ġdiest":6572,"Ġdrift":6573,"Ġcord":6574,"Ġcro":6575,"Ġcab":6576,"Ġcool":6577,"Ġcrows":6578,"Ġcords":6579,"ening":6580,"ened":6581,"enches":6582,"Ġnort":6583,"Ġnigh":6584,"Ġnamed":6585,"Ġnimble":6586,"Ġlute":6587,"Ġlads":6588,"Ġlying":6589,"Ġlinger":6590,"Ġthw":6591,"Ġthrown":6592,"Ġhill":6593,"Ġpow":6594,"Ġpour":6595,"Ġpest":6596,"Ġpant":6597,"Ġpup":6598,"Ġpict":6599,"Ġheel":6600,"Ġheinous":6601,"otland":6602,"Ġgust":6603,"Ġgather":6604,"Ġgaunt":6605,"Ġbeef":6606,"see":6607,"Ġinward":6608,"Ġhag":6609,"Ġhaunt":6610,"lect":6611,"aying":6612,"etition":6613,"Ġmeed":6614,"Ġmeal":6615,"iments":6616,"Ġnotice":6617,"Ġforso":6618,"Ġug":6619,"Ġwears":6620,"Ġeight":6621,"Ġeff":6622,"advent":6623,"ril":6624,"rial":6625,"Ġstink":6626,"Ġstag":6627,"Ġsteep":6628,"Ġstiff":6629,"Ġkites":6630,"iders":6631,"asant":6632,"Ġrein":6633,"Ġrevive":6634,"rament":6635,"Ġlick":6636,"Ġlief":6637,"urb":6638,"uring":6639,"alks":6640,"Ġashes":6641,"Ġassem":6642,"Ġdeer":6643,"Ġdece":6644,"Ġdeform":6645,"roach":6646,"Ġshade":6647,"Ġdole":6648,"amy":6649,"amity":6650,"aments":6651,"Ġnod":6652,"Ġnoon":6653,"ushi":6654,"anders":6655,"Ġsearch":6656,"Throw":6657,"Ġann":6658,"Ġancest":6659,"Ġlodge":6660,"Ġloathed":6661,"ella":6662,"Ġspark":6663,"Ġspider":6664,"Ġspurs":6665,"ĠCambio":6666,"ĠCupid":6667,"Ġvul":6668,"Ġvass":6669,"Ġvouch":6670,"Ġvial":6671,"Ġventure":6672,"ctor":6673,"ousins":6674,"Ġwhatsoever":6675,"Ġshot":6676,"Ġshown":6677,"ules":6678,"arthage":6679,"Ġprate":6680,"Ġprint":6681,"Ġprating":6682,"Ġmanhood":6683,"ĠEven":6684,"Ġamaz":6685,"icle":6686,"ication":6687,"ived":6688,"ively":6689,"Ġblot":6690,"Ġblue":6691,"Ġblown":6692,"Ġbliss":6693,"Ġblaze":6694,"Ġblushing":6695,"embroke":6696,"Ġtheme":6697,"ĠLove":6698,"Ġthereto":6699,"Ġcanop":6700,"eptune":6701,"Ġherein":6702,"Ġswoon":6703,"Ġbranch":6704,"Ġorator":6705,"ĠSly":6706,"ĠSunday":6707,"ĠSycor":6708,"ĠBagot":6709,"ĠBenvolio":6710,"Ġarise":6711,"Ġunlike":6712,"Ġunruly":6713,"Ġworms":6714,"Ġworser":6715,"ĠHave":6716,"Ġmustard":6717,"Ġgraces":6718,"Ġseeks":6719,"Ġlikeli":6720,"Ġshoulders":6721,"ĠPoor":6722,"Ġsack":6723,"Ġsaved":6724,"Ġplan":6725,"peian":6726,"ĠWest":6727,"ĠWednesday":6728,"Ġenforced":6729,"Ġenrich":6730,"unis":6731,"uned":6732,"fulness":6733,"Ġrhe":6734,"Ġranc":6735,"Ġrush":6736,"Ġroof":6737,"Ġrushes":6738,"Ġpock":6739,"Ġpopular":6740,"death":6741,"ption":6742,"Ġoffences":6743,"Ġdiso":6744,"Ġalar":6745,"Ġaloud":6746,"Ġalso":6747,"ABRA":6748,"Ġbrotherhood":6749,"Ġfox":6750,"Ġroses":6751,"Ġroaring":6752,"Ġexceed":6753,"Ġrig":6754,"Ġleap":6755,"Ġleaving":6756,"Ġslily":6757,"Ġflock":6758,"ĠTime":6759,"ĠTew":6760,"ĠTroy":6761,"ĠTullus":6762,"ĠTribunes":6763,"ffic":6764,"ĠKent":6765,"Ġcommends":6766,"Ġcler":6767,"Ġsweetest":6768,"Ġplebe":6769,"Ġperfection":6770,"Ġwring":6771,"awful":6772,"Ġtrim":6773,"Ġotherwise":6774,"Ġmeaner":6775,"lier":6776,"Ġscore":6777,"Ġnighting":6778,"Ġrace":6779,"Thank":6780,"these":6781,"ĠFourth":6782,"Ġdownfall":6783,"together":6784,"Ġappears":6785,"Ġcontri":6786,"GREY":6787,"Ġwhist":6788,"Northumberland":6789,"Ġmothers":6790,"Ġeverlast":6791,"ksbury":6792,"ĠJup":6793,"Ġrum":6794,"Ġpeer":6795,"Ġlevel":6796,"Ġharl":6797,"Ġharvest":6798,"Ġharbour":6799,"Ġrests":6800,"Ġsettled":6801,"attern":6802,"oses":6803,"Ġmoe":6804,"Ġmoving":6805,"Ġmoiety":6806,"Ġbestri":6807,"Ġhenceforth":6808,"Ġaccomp":6809,"Ġfaced":6810,"ulting":6811,"Ġendured":6812,"Ġpursue":6813,"Ġcompare":6814,"Ġcompound":6815,"Ġchamp":6816,"Ġdearth":6817,"twould":6818,"Ġtrees":6819,"Ġhomely":6820,"Ġbrand":6821,"isterous":6822,"Ġcharges":6823,"Ġchances":6824,"Ġchanging":6825,"Ġconfidence":6826,"Ġconfeder":6827,"Ġcoast":6828,"Ġcozen":6829,"Ġimpeach":6830,"Ġlights":6831,"Ġroyalties":6832,"Ġbeside":6833,"Ġfully":6834,"Ġdevour":6835,"Ġwronged":6836,"Ġmischief":6837,"Ġlasting":6838,"blance":6839,"Ġafterward":6840,"Ġthousands":6841,"Ġholding":6842,"Ġpatron":6843,"Ġfallen":6844,"Ġfalling":6845,"Ġstrife":6846,"ivant":6847,"Ġhumility":6848,"Ġbelong":6849,"Ġbelieved":6850,"Ġtalking":6851,"Ġgrim":6852,"Ġgrass":6853,"Ġdram":6854,"Ġserious":6855,"Ġboisterous":6856,"Ġadvoc":6857,"Ġmerchant":6858,"Ġrevenue":6859,"Ġdoubtful":6860,"Ġdancing":6861,"Ġpersons":6862,"Ġdischarge":6863,"Attend":6864,"Ġcommands":6865,"Ġwindow":6866,"ittany":6867,"Ġcrab":6868,"Ġhangman":6869,"Ġproudest":6870,"Twixt":6871,"Ġintents":6872,"Ġyielding":6873,"Ġbreaks":6874,"Ġmerri":6875,"Ġtemple":6876,"Ġrequire":6877,"Ġdefy":6878,"Ġlately":6879,"Ġtenderness":6880,"Ġsadly":6881,"Ġchose":6882,"Ġgrowth":6883,"Ġasking":6884,"Ġreported":6885,"shine":6886,"Ġwatery":6887,"ĠMontagues":6888,"Ġbattles":6889,"Ġcrying":6890,"Ġlearning":6891,"Ġlearned":6892,"Ġentreaty":6893,"Ġdevils":6894,"Ġmurders":6895,"Ġsilk":6896,"Ġboldness":6897,"Ġruns":6898,"Ġrevengeful":6899,"Happ":6900,"Happy":6901,"voc":6902,"Ġspeedy":6903,"Ġquarter":6904,"Ġconfessor":6905,"ĠNed":6906,"ĠNeptune":6907,"Ġforehead":6908,"Ġterr":6909,"Ġminutes":6910,"Ġrecreant":6911,"Ġdelicate":6912,"Ġdespised":6913,"Ġbosoms":6914,"Ġharmony":6915,"Ġguiltless":6916,"Ġattended":6917,"Ġmurderous":6918,"Ġveil":6919,"Ġdistra":6920,"Ġdistress":6921,"Ġacts":6922,"Ġwonderful":6923,"Ġsingular":6924,"Ġmusician":6925,"Ġclosed":6926,"Ġwaits":6927,"Ġburden":6928,"Ġsuffering":6929,"Ġbreasts":6930,"Ġwedded":6931,"Ġdukes":6932,"shearing":6933,"Ġwisely":6934,"Ġfeasts":6935,"eshrew":6936,"Ġgroom":6937,"Ġredempt":6938,"Ġbeggars":6939,"Read":6940,"Ready":6941,"Swear":6942,"ĠFortune":6943,"Ġcrim":6944,"Ġcrook":6945,"Ġcrush":6946,"standing":6947,"Ġinterrupt":6948,"Ġundo":6949,"Ġevils":6950,"Ġsumm":6951,"ĠVolscians":6952,"ĠVolscian":6953,"Ġvisitation":6954,"Ġbowl":6955,"Ġbaby":6956,"Ġframed":6957,"Ġsafely":6958,"Ġsafeguard":6959,"Ġknocks":6960,"Ġsacrament":6961,"Ġleaden":6962,"Ġlamentation":6963,"ĠIsabella":6964,"Ġignoble":6965,"Ġclean":6966,"Ġoppression":6967,"Ġapproved":6968,"Ġapprobation":6969,"Ġcomplaint":6970,"Ġdrinking":6971,"Ġsurfeit":6972,"Ġmidst":6973,"Ġmidwife":6974,"Ġdestiny":6975,"Ġsmallest":6976,"Confess":6977,"Ġeasily":6978,"Stands":6979,"Ġdamnable":6980,"Ġutmost":6981,"Ġmildly":6982,"Ġcauses":6983,"Ġpuiss":6984,"Ġpitied":6985,"Ġinjustice":6986,"Ġinsinu":6987,"Ġproceedings":6988,"Ġapart":6989,"Ġmedic":6990,"Ġmodel":6991,"Ġfamiliar":6992,"Ġreigns":6993,"Ġprosperity":6994,"Ġlenity":6995,"Ġlowly":6996,"angling":6997,"Ġbending":6998,"Ġslanderous":6999,"ĠCapulets":7000,"Ġmountain":7001,"Ġunpro":7002,"Ġunworthy":7003,"Ġprovided":7004,"Ġplants":7005,"Ġneighbours":7006,"Ġglasses":7007,"Ġextremes":7008,"when":7009,"Ġconclusion":7010,"Ġimagination":7011,"rateful":7012,"Ġunlook":7013,"Ġunluck":7014,"ĠAlban":7015,"govern":7016,"Ġavoided":7017,"Ġeager":7018,"Ġloathsome":7019,"Ġloyalty":7020,"Ġaims":7021,"Ġsensible":7022,"Ġcrept":7023,"Ġpilot":7024,"Ġstatutes":7025,"Ġchiefest":7026,"cannot":7027,"Ġcalamity":7028,"Ġpinch":7029,"Ġinfected":7030,"Ġstocks":7031,"Ġdearer":7032,"Ġangels":7033,"Ġlodged":7034,"Ġlodging":7035,"Ġpursuit":7036,"Ġconqueror":7037,"Prepare":7038,"Ġtutor":7039,"Ġfleet":7040,"Ġfrozen":7041,"ARCHBISHOP":7042,"Ġadvanced":7043,"Ġcorruption":7044,"Ġmagist":7045,"Ġconcerns":7046,"Ġcloak":7047,"Ġwhoreson":7048,"Ġcompassion":7049,"bric":7050,"Ġstolen":7051,"Ġsprings":7052,"Ġswelling":7053,"Ġabhorr":7054,"Ġadverse":7055,"Ġperjured":7056,"Suppose":7057,"Ġmultitude":7058,"Ġnails":7059,"Ġlinea":7060,"Ġpiercing":7061,"Ġinquire":7062,"Ġclimate":7063,"Ġwrinkled":7064,"Ġwhispering":7065,"Ġcorrection":7066,"ĠAntium":7067,"Ġcircumstance":7068,"Lieutenant":7069,"Sometime":7070,"craft":7071,"favour":7072,"Ġtaunts":7073,"Ġmoody":7074,"Ġsteward":7075,"Ġmanifest":7076,"Ġbranches":7077,"Ġunwilling":7078,"ĠTarpeian":7079,"Ġincensed":7080,"Ġsubstitute":7081,"Ġflatterers":7082,"Mistake":7083,"Ġtiger":7084,"Ġmilk":7085,"Ġnumbers":7086,"Ġhinder":7087,"Ġpearl":7088,"Ġbereft":7089,"Ġornaments":7090,"ĠBrittany":7091,"Ġunseen":7092,"Ġdisgraced":7093,"Ġtrifles":7094,"Ġserpent":7095,"Ġsufficient":7096,"Ġestimation":7097,"Ġoccupation":7098,"Break":7099,"Virtue":7100,"Ġeternal":7101,"Ġtardy":7102,"Ġsurpr":7103,"Ġfantast":7104,"Ġlunatic":7105,"Ġhistory":7106,"Ġconsequence":7107,"Ġmarshal":7108,"Ġmarvellous":7109,"Ġprophesy":7110,"Ġceremonious":7111,"Murder":7112,"Ġafeard":7113,"Ġsixteen":7114,"Ġmoment":7115,"Ġmurdered":7116,"Ġfrantic":7117,"Ġfifteen":7118,"Ġcabin":7119,"Ġnorthern":7120,"Ġforsooth":7121,"adventure":7122,"ĠSycorax":7123,"Ġlikelihood":7124,"ABRAHAM":7125,"ĠTewksbury":7126,"ĠJupiter":7127,"Ġadvocate":7128,"Ġredemption":7129,"Again":7130,"Aff":7131,"AGE":7132,"Aumerle":7133,"Apollo":7134,"Apothecary":7135,"Ban":7136,"BON":7137,"Bold":7138,"Bless":7139,"Cle":7140,"Cast":7141,"Cold":7142,"Carry":7143,"Cursed":7144,"Den":7145,"Dest":7146,"Def":7147,"DION":7148,"Direct":7149,"Er":7150,"End":7151,"Every":7152,"EMI":7153,"Fit":7154,"Fill":7155,"Fourth":7156,"Gain":7157,"Grand":7158,"Groom":7159,"Ho":7160,"Har":7161,"High":7162,"Huntsman":7163,"Imp":7164,"Just":7165,"Join":7166,"Keeper":7167,"Left":7168,"Music":7169,"NATH":7170,"Open":7171,"Obey":7172,"Pres":7173,"PAGE":7174,"Ren":7175,"Run":7176,"Ratcliff":7177,"Sus":7178,"Sic":7179,"Trust":7180,"Ur":7181,"Wife":7182,"Worse":7183,"ais":7184,"aches":7185,"avish":7186,"bon":7187,"bot":7188,"bat":7189,"bid":7190,"bur":7191,"best":7192,"bel":7193,"bles":7194,"bearer":7195,"co":7196,"cis":7197,"cour":7198,"cri":7199,"core":7200,"cast":7201,"count":7202,"cured":7203,"cals":7204,"dra":7205,"dist":7206,"daughter":7207,"door":7208,"duce":7209,"eks":7210,"fly":7211,"fend":7212,"found":7213,"franch":7214,"gea":7215,"gage":7216,"grown":7217,"gled":7218,"greed":7219,"hur":7220,"honour":7221,"iqu":7222,"ivers":7223,"jud":7224,"kn":7225,"kens":7226,"lm":7227,"lu":7228,"leness":7229,"mar":7230,"mal":7231,"make":7232,"mind":7233,"much":7234,"mission":7235,"nut":7236,"name":7237,"never":7238,"nothing":7239,"oa":7240,"og":7241,"overy":7242,"occ":7243,"ops":7244,"opher":7245,"ph":7246,"po":7247,"pre":7248,"por":7249,"put":7250,"phan":7251,"pers":7252,"pres":7253,"pire":7254,"ples":7255,"point":7256,"picious":7257,"sion":7258,"spe":7259,"sick":7260,"sign":7261,"such":7262,"side":7263,"somet":7264,"scape":7265,"ton":7266,"ule":7267,"uish":7268,"uced":7269,"ukes":7270,"vil":7271,"vance":7272,"wit":7273,"who":7274,"why":7275,"weet":7276,"were":7277,"witted":7278,"yp":7279,"yet":7280,"ĠU":7281,"Ġire":7282,"ĠNo":7283,"ĠThus":7284,"Ġton":7285,"Ġtur":7286,"Ġtea":7287,"Ġtink":7288,"Ġtreat":7289,"Ġtents":7290,"Ġtainted":7291,"Ġtailor":7292,"Ġtamed":7293,"Ġtumble":7294,"Ġack":7295,"Ġafore":7296,"Ġape":7297,"ouches":7298,"Ġsith":7299,"Ġsine":7300,"Ġsitting":7301,"Ġsiege":7302,"Ġmast":7303,"Ġmant":7304,"Ġmuff":7305,"Ġmiles":7306,"iner":7307,"Ġwester":7308,"Ġwilful":7309,"reth":7310,"report":7311,"has":7312,"haeth":7313,"Ġbought":7314,"Ġbishop":7315,"isc":7316,"isher":7317,"isome":7318,"oricles":7319,"Ġfet":7320,"Ġfem":7321,"Ġfits":7322,"Ġfulf":7323,"erous":7324,"lly":7325,"lling":7326,"itan":7327,"once":7328,"Ġder":7329,"Ġdom":7330,"Ġded":7331,"Ġdil":7332,"Ġdame":7333,"Ġdiet":7334,"Ġdrows":7335,"Ġdumb":7336,"Ġcand":7337,"Ġcave":7338,"Ġcuck":7339,"Ġcrest":7340,"Ġcrew":7341,"Ġcurious":7342,"Ġcushi":7343,"Ġcousins":7344,"Ġnon":7345,"Ġnaught":7346,"Ġnourish":7347,"Ġlink":7348,"Ġlace":7349,"Ġloose":7350,"Ġlung":7351,"Ġlends":7352,"Ġlatest":7353,"Ġyare":7354,"Ġyester":7355,"Ġthrees":7356,"arison":7357,"Ġhood":7358,"Ġom":7359,"Ġobt":7360,"Ġtoe":7361,"Ġtoken":7362,"Ġtoads":7363,"Ġtower":7364,"Ġpine":7365,"Ġpate":7366,"Ġpuff":7367,"Ġpedant":7368,"Ġpounds":7369,"Ġpattern":7370,"Ġheal":7371,"Ġheigh":7372,"stra":7373,"stone":7374,"strong":7375,"strel":7376,"owick":7377,"ank":7378,"omenes":7379,"Ġgam":7380,"Ġgame":7381,"Ġgaz":7382,"Ġgrum":7383,"Ġgeld":7384,"Ġgulf":7385,"Ġgloves":7386,"ato":7387,"atient":7388,"Ġbeet":7389,"Ġbeads":7390,"seth":7391,"Ġinve":7392,"Ġinch":7393,"Ġinvent":7394,"Ġinherit":7395,"cel":7396,"ceives":7397,"ceiving":7398,"Ġhaw":7399,"Ġhall":7400,"Ġhalt":7401,"ediment":7402,"Ġmellow":7403,"imo":7404,"ims":7405,"Ġnotes":7406,"Ġnotwith":7407,"chool":7408,"child":7409,"Ġforces":7410,"key":7411,"Ġweed":7412,"illed":7413,"Ġelo":7414,"Ġebb":7415,"herited":7416,"entious":7417,"ado":7418,"adem":7419,"adise":7420,"rion":7421,"riam":7422,"rief":7423,"rieve":7424,"Ġstu":7425,"Ġstem":7426,"Ġstark":7427,"Ġstaff":7428,"ghts":7429,"idd":7430,"iding":7431,"asy":7432,"asing":7433,"asures":7434,"Ġrent":7435,"Ġrender":7436,"Ġresem":7437,"raken":7438,"rails":7439,"Ġliar":7440,"Ġliqu":7441,"urvy":7442,"Ġsolic":7443,"Ġashore":7444,"Ġdeceive":7445,"Ġdefect":7446,"aining":7447,"verse":7448,"verdone":7449,"estiv":7450,"eap":7451,"earest":7452,"Ġdoct":7453,"Ġdoves":7454,"Ġdoors":7455,"Ġnoses":7456,"Ġbutter":7457,"using":7458,"usiness":7459,"ifth":7460,"Ġsear":7461,"Ġsequ":7462,"Ġallay":7463,"Ġallies":7464,"Ġsued":7465,"Ġsung":7466,"Ġsunder":7467,"Ġsugg":7468,"Ġsugar":7469,"Ġherbs":7470,"thw":7471,"throw":7472,"thrift":7473,"Ġansw":7474,"Ġantic":7475,"terate":7476,"Ġloins":7477,"Ġlocks":7478,"Ġspar":7479,"Ġsped":7480,"Ġspilt":7481,"Ġspices":7482,"Ġspiders":7483,"Ġfaction":7484,"ĠCle":7485,"ĠCaptain":7486,"ĠCarthage":7487,"Ġnegl":7488,"hoeb":7489,"Ġknit":7490,"ANIEL":7491,"ĠRo":7492,"Ġvi":7493,"Ġvine":7494,"Ġvig":7495,"cts":7496,"Ġshout":7497,"Ġshower":7498,"ulous":7499,"antime":7500,"quet":7501,"athom":7502,"Whate":7503,"ĠMadam":7504,"Ġwhet":7505,"Ġwheel":7506,"Ġamend":7507,"ending":7508,"icial":7509,"bled":7510,"iel":7511,"ivered":7512,"Ġblister":7513,"Ġblade":7514,"venient":7515,"ĠGentle":7516,"Forth":7517,"Forbear":7518,"Forgive":7519,"Forbid":7520,"olar":7521,"olve":7522,"olour":7523,"ĠLam":7524,"ĠLod":7525,"ĠLeave":7526,"Ġhatch":7527,"Ġcanker":7528,"feel":7529,"feits":7530,"ressed":7531,"ately":7532,"Ġbrass":7533,"ppet":7534,"pped":7535,"Ġorphan":7536,"allel":7537,"ĠShe":7538,"ĠSweet":7539,"Ġusure":7540,"ĠBes":7541,"ĠBraken":7542,"Ġarch":7543,"Ġargu":7544,"Ġarbit":7545,"Ġunple":7546,"Ġunrest":7547,"Ġworshi":7548,"ĠHa":7549,"ĠHear":7550,"ĠHerc":7551,"elting":7552,"Ġquake":7553,"Ġquaint":7554,"Ġjade":7555,"Ġjoc":7556,"Ġmusty":7557,"Ġgraft":7558,"Ġhole":7559,"cip":7560,"cially":7561,"Ġprog":7562,"Ġprocure":7563,"ĠPercy":7564,"ĠPatri":7565,"ĠPembroke":7566,"ĠPhaeth":7567,"ĠPhoeb":7568,"Ġsap":7569,"Ġmadly":7570,"Ġmadest":7571,"Ġmadman":7572,"ums":7573,"umes":7574,"umps":7575,"uments":7576,"umny":7577,"Ġplate":7578,"Ġplaints":7579,"people":7580,"ĠWh":7581,"ĠWelcome":7582,"ĠWales":7583,"ĠWalter":7584,"owned":7585,"Ġrats":7586,"Ġrites":7587,"Ġrising":7588,"Ġpox":7589,"Ġpoll":7590,"ptory":7591,"ĠAh":7592,"ĠAm":7593,"ĠAr":7594,"Ġtruer":7595,"Thoughts":7596,"Ġmarr":7597,"Ġmarble":7598,"Ġmariners":7599,"Ins":7600,"Infer":7601,"acks":7602,"Ġdisl":7603,"Ġdisorder":7604,"Ġaloof":7605,"Ġaltogether":7606,"Ġheap":7607,"oyal":7608,"Ġhears":7609,"echer":7610,"eches":7611,"Ġabst":7612,"Ġabod":7613,"Ġfold":7614,"Ġfoil":7615,"Ġearl":7616,"Ġearldom":7617,"Ġrode":7618,"Ġrocks":7619,"Ġexclaim":7620,"Ġexact":7621,"Ġexperience":7622,"Ġlooker":7623,"agine":7624,"ervation":7625,"aved":7626,"Ġripen":7627,"Ġridd":7628,"Ġrivers":7629,"tised":7630,"Wherefore":7631,"Ġslack":7632,"Ġwarn":7633,"Ġflame":7634,"ĠTur":7635,"ĠTunis":7636,"ffer":7637,"Ġbreeding":7638,"izab":7639,"sses":7640,"Ġclap":7641,"Ġprec":7642,"Ġpreced":7643,"Ġprerog":7644,"Ġsweets":7645,"Ġprays":7646,"Ġnobleman":7647,"Ġpledge":7648,"ĠDoricles":7649,"Ġperd":7650,"Ġperf":7651,"Ġpermit":7652,"Ġwrangling":7653,"aws":7654,"Ġtrades":7655,"Ġwayward":7656,"Ġheadstrong":7657,"lip":7658,"Ġscour":7659,"Ġscru":7660,"Ġscape":7661,"Ġpreserved":7662,"Ġqueens":7663,"Ġchival":7664,"Ġrages":7665,"Ġraging":7666,"Ġraiment":7667,"Ġragged":7668,"their":7669,"abour":7670,"ĠFear":7671,"ĠFran":7672,"Ġapply":7673,"Ġappell":7674,"Ġappoint":7675,"Ġarmed":7676,"Norfolk":7677,"sweet":7678,"Ġbegot":7679,"range":7680,"Ġmale":7681,"Ġimmediate":7682,"Ġlongest":7683,"ĠMarch":7684,"Ġreplied":7685,"Ġrepossess":7686,"Ġrepetition":7687,"Ġfriendship":7688,"Ġafoot":7689,"ĠJer":7690,"ĠJun":7691,"ĠJOHN":7692,"ĠJesu":7693,"Ġconspir":7694,"Ġconsumed":7695,"Ġconsidered":7696,"Ġperem":7697,"Ġlevy":7698,"Ġentrails":7699,"Ġlieutenant":7700,"chelor":7701,"Ġresort":7702,"Ġrescue":7703,"Ġtried":7704,"Ġmoan":7705,"Ġfollies":7706,"Ġprivy":7707,"Thyself":7708,"Ġchaf":7709,"Ġchap":7710,"Ġpeaceful":7711,"Ġelsewhere":7712,"ailing":7713,"asonable":7714,"Ġbackward":7715,"Ġcounted":7716,"Ġladyship":7717,"Ġneedle":7718,"Ġneedless":7719,"Ġtrembles":7720,"Ġhighway":7721,"Stanley":7722,"Ġhusbands":7723,"Ġbanquet":7724,"Ġminded":7725,"Ġbraved":7726,"Ġchest":7727,"Ġbribe":7728,"Ġshowers":7729,"Ġconfer":7730,"Ġconfines":7731,"Ġconfusion":7732,"Ġcoz":7733,"Ġcoal":7734,"Ġcoals":7735,"Ġcaused":7736,"Ġglories":7737,"Ġimpart":7738,"Ġimpud":7739,"Ġimpatience":7740,"Ġimpression":7741,"Ġimpatient":7742,"Ġimpediment":7743,"Ġbodes":7744,"Ġmistaking":7745,"Ġlightly":7746,"Ġlightness":7747,"Ġnatures":7748,"Ġpardons":7749,"Claudio":7750,"Ġbeseem":7751,"Ġhappier":7752,"Ġdevice":7753,"blown":7754,"Ġunderne":7755,"Ġundergo":7756,"Ġkilled":7757,"Ġfollowing":7758,"Ġfarm":7759,"Ġsunshine":7760,"Ġbush":7761,"Any":7762,"Ġstreet":7763,"Ġstream":7764,"Ġturned":7765,"Ġcomforts":7766,"Ġcomfortable":7767,"Ġsleeps":7768,"Ġsleepy":7769,"itories":7770,"Ġwelcomes":7771,"Ġthankful":7772,"Ġbox":7773,"Ġboon":7774,"Ġboat":7775,"Ġfights":7776,"Ġfighting":7777,"holds":7778,"Ġfalsely":7779,"plish":7780,"Ġmerciful":7781,"Ġmatters":7782,"Ġassault":7783,"Ġprisoners":7784,"Ġdangers":7785,"Ġdreamt":7786,"enerate":7787,"Ġstrait":7788,"Ġdischarged":7789,"Ġcommanding":7790,"Ġdared":7791,"Twill":7792,"Twice":7793,"Twenty":7794,"comp":7795,"Ġsisterhood":7796,"Ġfouler":7797,"versy":7798,"Ġdenial":7799,"Ġawry":7800,"Ġmerrim":7801,"Ġsupport":7802,"Ġsuppose":7803,"Ġsuppli":7804,"Ġbeating":7805,"Ġrequires":7806,"Ġrequired":7807,"Ġvalue":7808,"Ġaffright":7809,"Ġwoeful":7810,"Ġtenderly":7811,"Ġreturned":7812,"mph":7813,"mpet":7814,"Ġdeeper":7815,"Ġdeeply":7816,"Ġfootman":7817,"Ġchop":7818,"Ġcoldly":7819,"Ġnursed":7820,"azon":7821,"Ġplucks":7822,"shining":7823,"xton":7824,"Ġairy":7825,"Ġsuffice":7826,"Ġpastime":7827,"Ġfasting":7828,"Ġsilken":7829,"Ġstrongly":7830,"Canst":7831,"Ġpossessed":7832,"voke":7833,"voided":7834,"Ġinfring":7835,"Ġinfirm":7836,"Ġprofan":7837,"Ġprofits":7838,"Ġconfession":7839,"ĠNature":7840,"Ġmocking":7841,"Ġmockery":7842,"Ġforest":7843,"Ġdivided":7844,"Ġdivines":7845,"Ġdivision":7846,"Ġcarries":7847,"Ġposterity":7848,"Ġcounsels":7849,"Command":7850,"Commit":7851,"Ġterrible":7852,"Ġminstrel":7853,"Ġinconstant":7854,"Ġrecover":7855,"Ġresolute":7856,"nowledge":7857,"Ġharmless":7858,"ĠHector":7859,"Ġagreed":7860,"Ġwhipt":7861,"Ġdishon":7862,"Ġdisting":7863,"Ġdisturb":7864,"Ġdistressed":7865,"Ġtribune":7866,"Ġtribute":7867,"Ġdraws":7868,"Ġactor":7869,"Ġstirs":7870,"Ġstirring":7871,"Ġbreathes":7872,"Ġclosely":7873,"Ġforgiveness":7874,"Ġsufferance":7875,"Ġskulls":7876,"Ġsigns":7877,"Ġwisest":7878,"Ġregiment":7879,"Ġpoisonous":7880,"Ġcheerfully":7881,"shepherd":7882,"Ġtax":7883,"Ġdireful":7884,"Ġpays":7885,"Ġsuccor":7886,"Ġblessings":7887,"Ġbleed":7888,"Ġbleeds":7889,"Ġinterchange":7890,"Ġembass":7891,"Ġmalign":7892,"Ġhurried":7893,"Ġchamberlain":7894,"Ġcowardice":7895,"Ġlimits":7896,"Ġscorns":7897,"Ġwitnesses":7898,"Ġbroad":7899,"Ġcreated":7900,"Ġcreatures":7901,"Ġcaparison":7902,"ĠChristopher":7903,"Ġidly":7904,"Ġhideous":7905,"Ġbeastly":7906,"Ġrebel":7907,"Ġrebuke":7908,"Ġscarlet":7909,"Ġsecrets":7910,"Ġfills":7911,"Ġstrumpet":7912,"Ġpuppet":7913,"Ġinjurious":7914,"Ġinjuries":7915,"Ġinsulting":7916,"Ġinnocence":7917,"Ġadmit":7918,"Ġadmir":7919,"Ġadmitted":7920,"Ġfamish":7921,"Ġgovernor":7922,"Enough":7923,"Proud":7924,"Ġscholar":7925,"Ġmutiny":7926,"Ġlustful":7927,"Ġthreats":7928,"Ġindiffe":7929,"Ġindirect":7930,"Ġsolely":7931,"Ġgrandfather":7932,"Ġsafer":7933,"Ġsentenced":7934,"Ġdrunkard":7935,"Belike":7936,"Heart":7937,"Measure":7938,"Meantime":7939,"piring":7940,"Ġmounting":7941,"Ġfeat":7942,"Ġcaptive":7943,"ĠAntonio":7944,"Ġcontrad":7945,"Ġdegrees":7946,"Ġdemands":7947,"Ġremedies":7948,"Ġunderstanding":7949,"Ġgreetings":7950,"Ġtriumphs":7951,"Ġfarthest":7952,"Ġfaintly":7953,"Ġdwells":7954,"Ġthroats":7955,"Ġhunger":7956,"Ġgait":7957,"Ġgaol":7958,"Ġgape":7959,"Ġgaoler":7960,"Ġgentler":7961,"Ġchastity":7962,"Ġchastisement":7963,"Ġmiseries":7964,"Ġextremest":7965,"Ġscarcely":7966,"whelm":7967,"Ġfirmly":7968,"Ġholid":7969,"Ġinclination":7970,"Ġrelig":7971,"Ġunborn":7972,"Ġbootless":7973,"Ġconditions":7974,"Ġschoolmaster":7975,"Ġfruitful":7976,"Ġbald":7977,"Ġbachelor":7978,"Ġfeeding":7979,"Ġstooping":7980,"Ġunlawful":7981,"ĠAlas":7982,"therefore":7983,"Ġimportune":7984,"Ġprophecy":7985,"portion":7986,"Ġdecay":7987,"Ġknightly":7988,"Ġknighthood":7989,"Ġshrink":7990,"Ġroundly":7991,"Ġfrighted":7992,"Ġassistance":7993,"Ġdelights":7994,"Ġutterance":7995,"actors":7996,"Ġcreate":7997,"Ġlouder":7998,"Ġstarve":7999,"Ġjealousies":8000,"Ġrascals":8001,"Ġtreachery":8002,"Ġerror":8003,"Ġcalumny":8004,"Ġphysician":8005,"Ġweighty":8006,"Ġsupreme":8007,"runes":8008,"Ġpursued":8009,"Repent":8010,"Shame":8011,"paration":8012,"Ġwolves":8013,"Ġwonders":8014,"Ġbaseness":8015,"Ġbudge":8016,"Ġdiadem":8017,"Ġbeware":8018,"Ġrewards":8019,"Ġpronounced":8020,"Ġambition":8021,"Ġargos":8022,"ĠFlore":8023,"ĠFloriz":8024,"Ġcracking":8025,"Ġpenitence":8026,"Ġpublicly":8027,"Arm":8028,"Arise":8029,"doing":8030,"scap":8031,"Ġmagic":8032,"Ġhazel":8033,"Ġmerely":8034,"ĠCalais":8035,"ĠElizab":8036,"Ġapprehens":8037,"Ġgreyh":8038,"Ġcholeric":8039,"Consider":8040,"glass":8041,"Ġmillions":8042,"regory":8043,"Ġthorns":8044,"Ġbefal":8045,"Ġbefits":8046,"Ġnobler":8047,"ĠSTANLEY":8048,"Ġworthily":8049,"Ġadvertised":8050,"Ġperjury":8051,"Ġwitchcraft":8052,"Ġbrawl":8053,"Ġbrawling":8054,"Ġachieve":8055,"Ġachieved":8056,"Ġsyll":8057,"Ġwinged":8058,"Ġfunction":8059,"Ġhorror":8060,"Ġforsake":8061,"Ġevents":8062,"Ġdissemble":8063,"Ġclimb":8064,"ĠDeath":8065,"Ġrestraint":8066,"Ġafflict":8067,"ĠAntiates":8068,"Ġcircumstances":8069,"Condemn":8070,"Knock":8071,"Small":8072,"mongst":8073,"Ġtimeless":8074,"Ġwidows":8075,"Ġnapkin":8076,"Ġdebase":8077,"Ġsuperfl":8078,"Ġsplit":8079,"Ġvillany":8080,"Ġvolume":8081,"Ġshriek":8082,"Ġdispleasure":8083,"Ġdisguised":8084,"Ġscolding":8085,"Ġcouncil":8086,"Ġcouncils":8087,"Ġcurtain":8088,"Amongst":8089,"Between":8090,"Betwixt":8091,"Pursu":8092,"Seize":8093,"URREY":8094,"Ġbaggage":8095,"Ġhomage":8096,"Ġhigher":8097,"Ġpedlar":8098,"Ġhaughty":8099,"ĠGreece":8100,"ĠScotland":8101,"ĠSpeak":8102,"Ġunfeigned":8103,"Ġappeared":8104,"Ġconsorted":8105,"Ġbankrupt":8106,"Ġdragon":8107,"Ġtransported":8108,"Evermore":8109,"England":8110,"Ġsaucy":8111,"Ġmourning":8112,"Ġcentre":8113,"Ġissued":8114,"Ġsociety":8115,"Ġanchor":8116,"ĠEmilia":8117,"Ġshelter":8118,"ĠWelshmen":8119,"Ġimperial":8120,"Ġlecture":8121,"Ġrestored":8122,"Ġsmiling":8123,"Ġcounsellor":8124,"Ġinferior":8125,"Ġdivorce":8126,"Ġtroublous":8127,"Ġexpedition":8128,"Ġinsolence":8129,"Dispatch":8130,"Ġconcluded":8131,"Ġtestimony":8132,"Ġreckoning":8133,"Affection":8134,"Touching":8135,"posterous":8136,"Ġsands":8137,"Ġcordial":8138,"Ġpestilence":8139,"Ġpupil":8140,"Ġugly":8141,"Ġvulgar":8142,"Ġvassal":8143,"Ġamazement":8144,"Ġcanopy":8145,"Ġrancour":8146,"Ġpocket":8147,"Ġdisobed":8148,"Ġplebeians":8149,"Ġnightingale":8150,"Ġwhistle":8151,"Ġharlot":8152,"Ġmerrily":8153,"Ġterritories":8154,"Ġpuissant":8155,"Ġmedicine":8156,"BONA":8157,"EMILIA":8158,"Gainst":8159,"Grandam":8160,"Harp":8161,"NATHANIEL":8162,"Urge":8163,"iquity":8164,"Ġtonight":8165,"Ġsinew":8166,"Ġwestern":8167,"Ġfemale":8168,"Ġcuckold":8169,"Ġlungs":8170,"Ġobtain":8171,"Ġnotwithstanding":8172,"Ġeloqu":8173,"Ġsolicit":8174,"estival":8175,"Ġvineyard":8176,"ĠLodowick":8177,"ĠBrakenbury":8178,"ĠHercules":8179,"Ġjocund":8180,"ĠPatrician":8181,"ĠPhaethon":8182,"ĠPhoebus":8183,"Ġprecedent":8184,"Ġprerogative":8185,"ĠFrancis":8186,"Ġperemptory":8187,"Ġunderneath":8188,"Ġmerriment":8189,"Ġindifferent":8190,"ĠFlorizel":8191,"ĠElizabeth":8192,"Ġapprehension":8193,"'!":8194,"'--":8195,"Aufidius":8196,"ALIS":8197,"BL":8198,"Bad":8199,"Bore":8200,"Best":8201,"Breat":8202,"Back":8203,"Bohemia":8204,"Beshrew":8205,"Ch":8206,"Che":8207,"Cut":8208,"Chi":8209,"Care":8210,"CIS":8211,"Citizen":8212,"Charge":8213,"Dou":8214,"Dro":8215,"Die":8216,"Ele":8217,"EAR":8218,"Far":8219,"Fri":8220,"Fly":8221,"Fell":8222,"Fine":8223,"Found":8224,"FRAN":8225,"Fool":8226,"Friar":8227,"Fellow":8228,"Gl":8229,"Gu":8230,"Gold":8231,"Gloucester":8232,"Grumio":8233,"Girl":8234,"Given":8235,"Hard":8236,"Host":8237,"Hap":8238,"HOMAS":8239,"Holy":8240,"Ill":8241,"Jul":8242,"Jesu":8243,"Katharina":8244,"Less":8245,"Last":8246,"Lend":8247,"Little":8248,"Lives":8249,"Man":8250,"Mount":8251,"Mere":8252,"Masters":8253,"Mercy":8254,"Near":8255,"Night":8256,"Nine":8257,"Opp":8258,"Oxford":8259,"Pit":8260,"Perc":8261,"Pale":8262,"Red":8263,"Rest":8264,"Ref":8265,"Sin":8266,"Sen":8267,"Sent":8268,"Sad":8269,"Sel":8270,"Soul":8271,"Sorrow":8272,"Sto":8273,"Sland":8274,"Seal":8275,"Sleep":8276,"Tong":8277,"Time":8278,"Tran":8279,"Takes":8280,"Trem":8281,"Tullus":8282,"UNT":8283,"Went":8284,"Yonder":8285,"ait":8286,"aus":8287,"avery":8288,"aled":8289,"acious":8290,"against":8291,"avoided":8292,"bre":8293,"bro":8294,"ball":8295,"book":8296,"bred":8297,"bject":8298,"bham":8299,"bhors":8300,"business":8301,"cas":8302,"could":8303,"cond":8304,"creat":8305,"corn":8306,"chard":8307,"certain":8308,"cats":8309,"custom":8310,"content":8311,"cued":8312,"cency":8313,"dan":8314,"dent":8315,"dur":8316,"dro":8317,"dish":8318,"dict":8319,"doubt":8320,"deliver":8321,"ele":8322,"every":8323,"eress":8324,"eases":8325,"fan":8326,"fix":8327,"fellows":8328,"gom":8329,"gher":8330,"gone":8331,"gnant":8332,"hill":8333,"hra":8334,"ias":8335,"ige":8336,"iod":8337,"iber":8338,"iable":8339,"iction":8340,"iby":8341,"ky":8342,"lay":8343,"lord":8344,"lous":8345,"live":8346,"lves":8347,"lorn":8348,"lause":8349,"mo":8350,"min":8351,"mast":8352,"mak":8353,"matter":8354,"mony":8355,"net":8356,"none":8357,"nel":8358,"need":8359,"oz":8360,"oft":8361,"oever":8362,"phe":8363,"pse":8364,"pter":8365,"pho":8366,"past":8367,"part":8368,"pence":8369,"poor":8370,"piece":8371,"pril":8372,"poses":8373,"rings":8374,"rates":8375,"roop":8376,"sl":8377,"sir":8378,"sil":8379,"song":8380,"sist":8381,"since":8382,"serv":8383,"sorrow":8384,"sby":8385,"sia":8386,"school":8387,"te":8388,"too":8389,"tree":8390,"true":8391,"tered":8392,"trick":8393,"tsey":8394,"uc":8395,"uing":8396,"uity":8397,"ubs":8398,"ugg":8399,"ueless":8400,"vill":8401,"vion":8402,"vity":8403,"vice":8404,"viol":8405,"wr":8406,"wind":8407,"worn":8408,"ween":8409,"widow":8410,"wench":8411,"warn":8412,"worth":8413,"yally":8414,"ymph":8415,"zwater":8416,"Ġ&":8417,"ĠĠ":8418,"ĠNot":8419,"ĠThese":8420,"Ġtil":8421,"Ġtum":8422,"Ġtire":8423,"Ġtatter":8424,"Ġtides":8425,"Ġtunes":8426,"Ġtales":8427,"Ġteeming":8428,"Ġtumbling":8429,"hen":8430,"hence":8431,"Ġau":8432,"Ġaust":8433,"Ġaery":8434,"Ġaches":8435,"Ġsly":8436,"Ġsurn":8437,"Ġsongs":8438,"Ġmot":8439,"Ġmow":8440,"Ġming":8441,"Ġmart":8442,"Ġmum":8443,"Ġmap":8444,"Ġmass":8445,"Ġmute":8446,"Ġmuse":8447,"inc":8448,"inet":8449,"inance":8450,"inable":8451,"inite":8452,"Ġwra":8453,"Ġware":8454,"Ġwaken":8455,"Ġwaning":8456,"Ġwenches":8457,"Ġwalks":8458,"reef":8459,"repare":8460,"reement":8461,"haw":8462,"hast":8463,"happ":8464,"nders":8465,"Ġbust":8466,"Ġbone":8467,"Ġbau":8468,"Ġbind":8469,"Ġbate":8470,"Ġbide":8471,"Ġbaw":8472,"Ġbier":8473,"Ġbale":8474,"Ġbount":8475,"Ġbench":8476,"Ġbash":8477,"Ġbills":8478,"isk":8479,"isle":8480,"Ġfen":8481,"Ġfed":8482,"Ġfut":8483,"Ġfate":8484,"Ġfence":8485,"Ġfile":8486,"Ġfester":8487,"Ġfitted":8488,"Ġfees":8489,"Ġfitting":8490,"Ġfowl":8491,"Ġfront":8492,"Ġfickle":8493,"Ġfathom":8494,"Ġfestival":8495,"erman":8496,"eria":8497,"erwhelm":8498,"itche":8499,"Ġdun":8500,"Ġdaint":8501,"Ġdastard":8502,"Ġdaring":8503,"Ġduteous":8504,"Ġdainty":8505,"Ġced":8506,"Ġcas":8507,"Ġcard":8508,"Ġcele":8509,"Ġnearer":8510,"Ġnerves":8511,"Ġniece":8512,"Ġnuns":8513,"Ġnearest":8514,"Ġnymph":8515,"Ġninet":8516,"Ġlain":8517,"Ġlame":8518,"Ġlass":8519,"Ġlaughter":8520,"Ġlaz":8521,"Ġlecher":8522,"Ġyew":8523,"Ġyellow":8524,"Ġthra":8525,"Ġthres":8526,"Ġthrew":8527,"Ġthreef":8528,"arth":8529,"arling":8530,"Ġhook":8531,"Ġhilt":8532,"Ġhint":8533,"Ġhounds":8534,"Ġhills":8535,"Ġox":8536,"Ġost":8537,"Ġoce":8538,"Ġtoss":8539,"Ġphe":8540,"Ġpir":8541,"Ġpith":8542,"Ġpoo":8543,"Ġpul":8544,"Ġpull":8545,"Ġpark":8546,"Ġpens":8547,"Ġpotion":8548,"Ġpines":8549,"Ġpals":8550,"Ġpiled":8551,"Ġprunes":8552,"ĠIrish":8553,"Ġhen":8554,"Ġhew":8555,"Ġhedge":8556,"oting":8557,"oted":8558,"stit":8559,"stood":8560,"stool":8561,"strue":8562,"staring":8563,"owing":8564,"ange":8565,"anous":8566,"another":8567,"anks":8568,"answer":8569,"oming":8570,"Ġgle":8571,"Ġgay":8572,"Ġgir":8573,"Ġgear":8574,"Ġgilt":8575,"Ġgild":8576,"Ġgorge":8577,"Ġginger":8578,"Ġglove":8579,"atin":8580,"athan":8581,"atory":8582,"atiate":8583,"Ġbeho":8584,"Ġbecom":8585,"sea":8586,"Ġinhabit":8587,"Ġhab":8588,"Ġhaven":8589,"lex":8590,"lehill":8591,"ayer":8592,"ldren":8593,"iry":8594,"edy":8595,"uto":8596,"utus":8597,"utches":8598,"imple":8599,"Ġnotorious":8600,"cho":8601,"Ġissues":8602,"Ġforn":8603,"Ġforms":8604,"Ġforlorn":8605,"keep":8606,"Ġweb":8607,"ooing":8608,"Ġeg":8609,"Ġel":8610,"Ġew":8611,"Ġegg":8612,"hertsey":8613,"enting":8614,"rip":8615,"rian":8616,"ribe":8617,"Ġsty":8618,"Ġstart":8619,"Ġstall":8620,"Ġstage":8621,"Ġstint":8622,"Ġstew":8623,"Ġstray":8624,"Ġsteter":8625,"Ġstring":8626,"Ġstarts":8627,"Ġstrat":8628,"Ġkern":8629,"Ġkenn":8630,"ashy":8631,"asci":8632,"asite":8633,"Ġrevers":8634,"Ġrelish":8635,"Ġrelease":8636,"Ġrevell":8637,"lying":8638,"lysses":8639,"raign":8640,"Ġliars":8641,"urity":8642,"urther":8643,"urps":8644,"urbs":8645,"urope":8646,"alf":8647,"alo":8648,"alance":8649,"alty":8650,"Ġsoar":8651,"Ġsober":8652,"Ġsolace":8653,"Ġascend":8654,"Ġaspiring":8655,"rosby":8656,"hilip":8657,"vering":8658,"Ġshamed":8659,"Ġdol":8660,"Ġdoit":8661,"Ġdoings":8662,"usc":8663,"usale":8664,"usual":8665,"ussia":8666,"ifter":8667,"Ġsem":8668,"Ġsex":8669,"Ġsevent":8670,"Ġsepar":8671,"geon":8672,"geal":8673,"Thither":8674,"Throng":8675,"Ġsues":8676,"Ġsuret":8677,"Ġsulp":8678,"Told":8679,"Together":8680,"Ġherds":8681,"rung":8682,"ruised":8683,"things":8684,"thought":8685,"thren":8686,"Ġant":8687,"Ġangu":8688,"ternal":8689,"arded":8690,"hance":8691,"hanging":8692,"Ġspot":8693,"Ġspell":8694,"Ġspear":8695,"Ġspurn":8696,"Ġspace":8697,"Ġspotted":8698,"Ġfails":8699,"Ġfabric":8700,"ĠCy":8701,"ĠCot":8702,"ĠCast":8703,"ĠCall":8704,"ĠChertsey":8705,"ĠCrosby":8706,"Ġknell":8707,"Ġknavery":8708,"ĠRag":8709,"ĠRoss":8710,"ĠRussia":8711,"Ġvest":8712,"Ġvio":8713,"Ġvap":8714,"Ġvices":8715,"asted":8716,"astian":8717,"Ġwhate":8718,"ighton":8719,"Ġshine":8720,"Ġshouts":8721,"ulation":8722,"Ġupper":8723,"qua":8724,"quin":8725,"quis":8726,"qual":8727,"quess":8728,"quaint":8729,"quiet":8730,"Ġgoodman":8731,"usters":8732,"Ġpry":8733,"Ġatone":8734,"Ġmanly":8735,"Ġmankind":8736,"Ġmanacles":8737,"Ġmangled":8738,"ĠMab":8739,"Ġwheres":8740,"Ġwheels":8741,"ĠEurope":8742,"Ġamity":8743,"Ġamended":8744,"endom":8745,"icing":8746,"ican":8747,"icide":8748,"icester":8749,"Ġconver":8750,"Ġconvers":8751,"Ġconvent":8752,"Ġconstable":8753,"Ġblots":8754,"Ġblasp":8755,"vener":8756,"ĠGuild":8757,"ĠGregory":8758,"Forget":8759,"Ġshepher":8760,"Ġsheets":8761,"eminate":8762,"Ġgoest":8763,"areth":8764,"Ġwasp":8765,"oln":8766,"ĠLay":8767,"ĠLud":8768,"ĠLatin":8769,"Ġhatches":8770,"Ġknowest":8771,"Ġcannib":8772,"ersha":8773,"ershire":8774,"Ġsayest":8775,"Ġswim":8776,"Ġswine":8777,"Ġswifter":8778,"Ġbrine":8779,"Ġbrittle":8780,"pper":8781,"Ġorchard":8782,"ĠSay":8783,"ĠSome":8784,"ĠSix":8785,"ĠShow":8786,"ĠSeb":8787,"ĠSURREY":8788,"ĠSALIS":8789,"Ġusing":8790,"Ġusage":8791,"ĠOf":8792,"ĠOr":8793,"ĠOnce":8794,"ĠOverdone":8795,"ĠBel":8796,"ĠBoy":8797,"ĠBret":8798,"ĠBrist":8799,"ĠBrand":8800,"ĠBishop":8801,"odity":8802,"Ġung":8803,"Ġunity":8804,"Ġunman":8805,"Ġunaw":8806,"Ġunlo":8807,"Ġungra":8808,"Ġunacc":8809,"Ġungentle":8810,"Ġunivers":8811,"Ġunthrift":8812,"Ġunavoided":8813,"Ġunusual":8814,"igation":8815,"ĠHad":8816,"ĠHas":8817,"ĠHallow":8818,"hyme":8819,"elpho":8820,"Ġquest":8821,"Whence":8822,"Ġjar":8823,"Ġjump":8824,"Ġjoll":8825,"Ġhoped":8826,"cible":8827,"cipl":8828,"Ġprover":8829,"Ġproduce":8830,"Ġproffer":8831,"ĠPut":8832,"ĠPil":8833,"ĠPriam":8834,"ĠPhilip":8835,"Ġsails":8836,"umn":8837,"Ġplent":8838,"Ġplotted":8839,"pecially":8840,"ĠWife":8841,"Ġensue":8842,"Ġenroll":8843,"Ġenjoin":8844,"Ġenfranch":8845,"unch":8846,"Ġrood":8847,"Ġrings":8848,"Ġrates":8849,"Ġoutst":8850,"pted":8851,"pture":8852,"Ġhowl":8853,"ĠAE":8854,"ĠAg":8855,"ĠAt":8856,"ĠAfri":8857,"ĠAriel":8858,"ĠAbhors":8859,"ĠApril":8860,"Ġtrudge":8861,"Ġhandle":8862,"Ġsomebod":8863,"Ġmarquess":8864,"Inf":8865,"acket":8866,"ĠYes":8867,"Ġdislike":8868,"Ġdishes":8869,"Ġdisposed":8870,"Ġdiseases":8871,"Ġdiscipl":8872,"Ġhearth":8873,"Ġability":8874,"Ġabuses":8875,"Ġfoaming":8876,"Ġdaylight":8877,"Ġrod":8878,"Ġroad":8879,"Ġrope":8880,"Ġrogues":8881,"Ġroyally":8882,"Ġexha":8883,"Ġexternal":8884,"Ġtellus":8885,"agate":8886,"agems":8887,"Ġrip":8888,"Ġarticles":8889,"Ġarticle":8890,"Ġslide":8891,"Ġslanders":8892,"Ġwary":8893,"Ġwarning":8894,"Ġflour":8895,"Ġflag":8896,"Ġfliers":8897,"Ġfearless":8898,"ĠTHOMAS":8899,"bery":8900,"bering":8901,"oughby":8902,"Ġbrethren":8903,"Beg":8904,"apable":8905,"ighs":8906,"Ġgreatly":8907,"Ġfairies":8908,"izard":8909,"Ġpartake":8910,"Ġpartial":8911,"Ġcalling":8912,"Ġadul":8913,"Ġadorn":8914,"Ġadult":8915,"Ġadder":8916,"Ġcommit":8917,"Ġcommodity":8918,"Yourself":8919,"Ġclothe":8920,"Ġpreparation":8921,"Ġpregnant":8922,"assad":8923,"ĠDion":8924,"ĠDelpho":8925,"Ġperused":8926,"Ġperiod":8927,"liction":8928,"livion":8929,"Ġscra":8930,"Ġscare":8931,"Ġscars":8932,"Ġscouts":8933,"Ġpresum":8934,"Ġpresses":8935,"Ġprescri":8936,"Ġnightly":8937,"pery":8938,"peror":8939,"peration":8940,"Ġraw":8941,"Ġrarest":8942,"Ġraze":8943,"Ġrabble":8944,"Ġkeen":8945,"abb":8946,"ĠFifth":8947,"Ġapplause":8948,"Ġcontem":8949,"Ġremiss":8950,"Ġremote":8951,"ilty":8952,"swear":8953,"sworn":8954,"ressing":8955,"Ġbegging":8956,"Ġlongs":8957,"Ġlonging":8958,"ĠMark":8959,"Ġlively":8960,"meant":8961,"Ġrepaid":8962,"Ġreproof":8963,"Ġreprieve":8964,"forward":8965,"Ġmightily":8966,"atching":8967,"ĠJud":8968,"ĠJule":8969,"Ġrub":8970,"Ġconsume":8971,"Ġconserves":8972,"Ġcrowned":8973,"Ġpeck":8974,"Ġpeasant":8975,"hallow":8976,"Ġlevied":8977,"Ġharms":8978,"Ġharder":8979,"Ġresteth":8980,"Ġcourses":8981,"Ġentire":8982,"attery":8983,"Ġtongueless":8984,"Ġkeeping":8985,"iously":8986,"Ġslender":8987,"Ġreserved":8988,"Ġresidence":8989,"fts":8990,"Ġmoans":8991,"Ġmolehill":8992,"retion":8993,"Ġhourly":8994,"uddy":8995,"Ġendow":8996,"Ġendea":8997,"ieldy":8998,"Ġpricks":8999,"Ġpurged":9000,"Ġpurses":9001,"Ġpursues":9002,"Ġpurposes":9003,"Ġcompell":9004,"Ġcomposition":9005,"ertainty":9006,"Ġchain":9007,"Ġchaff":9008,"Ġchains":9009,"Prosper":9010,"Ġsuborn":9011,"Ġsubsc":9012,"Ġsubmission":9013,"Ġsuburbs":9014,"Ġsmiled":9015,"Ġsmelt":9016,"ected":9017,"Ġtraged":9018,"Ġtragic":9019,"Ġtraffic":9020,"Ġhush":9021,"Ġneedy":9022,"two":9023,"Ġtreble":9024,"Stir":9025,"Ġseemeth":9026,"Ġrightly":9027,"aching":9028,"Ġbragg":9029,"Ġbrazen":9030,"Ġcheers":9031,"Ġcharms":9032,"Ġcharters":9033,"Ġcharitable":9034,"Ġchanges":9035,"Ġconfined":9036,"Ġhandsome":9037,"beha":9038,"bered":9039,"Ġcoats":9040,"Ġglister":9041,"Ġimpose":9042,"Ġfortnight":9043,"Ġfortunate":9044,"Ġbringing":9045,"Ġmistook":9046,"Ġpasses":9047,"Ġthrong":9048,"Ġpleaseth":9049,"ĠAnswer":9050,"Clifford":9051,"Ġbesiege":9052,"Ġjustly":9053,"Ġjustify":9054,"Ġwrongfully":9055,"Ġmiscar":9056,"ension":9057,"Ġplaced":9058,"blind":9059,"Ġundert":9060,"Ġhelping":9061,"Ġlesson":9062,"Ġfooling":9063,"Ġsuns":9064,"Ġchid":9065,"Ġchides":9066,"Ġchron":9067,"Unb":9068,"Unw":9069,"Ġbusied":9070,"Angelo":9071,"overed":9072,"Ġstride":9073,"Ġstripes":9074,"ivity":9075,"Ġstreak":9076,"Ġwomanish":9077,"Ġturning":9078,"Ġhumane":9079,"Ġbelongs":9080,"Ġcourts":9081,"Ġtalked":9082,"Ġoverheard":9083,"Ġoverthrow":9084,"Ġbuilt":9085,"Ġburial":9086,"Ġibat":9087,"Ġattent":9088,"Ġattach":9089,"Ġplays":9090,"Ġinstance":9091,"Ġinstead":9092,"Ġwelcom":9093,"Ġwelkin":9094,"Ġcurs":9095,"Ġcurbs":9096,"Ġemulation":9097,"pling":9098,"plain":9099,"Ġsending":9100,"Ġcountryman":9101,"Ġdoubted":9102,"Ġwishing":9103,"Ġreasonable":9104,"Wouldst":9105,"Ġdances":9106,"Ġbreaths":9107,"Ġgiant":9108,"Ġstrain":9109,"Ġdiscred":9110,"Ġdiscords":9111,"Ġdiscreet":9112,"Ġdiscovery":9113,"Ġdiscretion":9114,"Alone":9115,"Ġsenis":9116,"Ġcommandment":9117,"Ġwinding":9118,"Ġstrang":9119,"Ġswearing":9120,"Ġdepth":9121,"comb":9122,"comfort":9123,"Ġtending":9124,"Ġgreets":9125,"Ġgetting":9126,"Ġintends":9127,"Ġintended":9128,"Ġinterest":9129,"Ġkissing":9130,"Ġbreaking":9131,"Ġawe":9132,"Ġawful":9133,"Hermione":9134,"Ġtemperate":9135,"Ġsupple":9136,"Ġspoils":9137,"Ġlamp":9138,"Ġrequite":9139,"Ġrequital":9140,"Ġmete":9141,"Ġsoonest":9142,"Ġreturns":9143,"acre":9144,"ackey":9145,"Ġmarrying":9146,"Ġfooting":9147,"Ġwarrants":9148,"ĠJulius":9149,"Ġthroughly":9150,"soe":9151,"Ġchoke":9152,"Ġcolder":9153,"Ġasked":9154,"Ġplucked":9155,"show":9156,"ĠMontgom":9157,"Ġstrangely":9158,"Ġbats":9159,"Ġentreated":9160,"Whoop":9161,"Ġvisor":9162,"Ġdispro":9163,"ixture":9164,"Mayor":9165,"Ġordain":9166,"Ġordinance":9167,"Ġquicken":9168,"Ġdesired":9169,"Ġhardy":9170,"Ġwooers":9171,"Ġinfancy":9172,"Ġinfamy":9173,"Ġinflu":9174,"Ġinfinite":9175,"Become":9176,"Spoke":9177,"Ġwearing":9178,"Ġdelivery":9179,"Ġspeedily":9180,"Ġquarre":9181,"Ġprofound":9182,"Ġstrengthen":9183,"cession":9184,"Ġforefather":9185,"Ġforerun":9186,"Ġforetell":9187,"Ġdivide":9188,"Ġcarrion":9189,"Ġposts":9190,"Ġposterns":9191,"Ġexecut":9192,"Ġparch":9193,"Ġparadise":9194,"Ġparlous":9195,"Ġparasite":9196,"Ġincur":9197,"Ġincapable":9198,"Ġrecount":9199,"ĠTheir":9200,"Ġtitles":9201,"Ġopening":9202,"Ġshorten":9203,"Ġseeking":9204,"Ġmurdering":9205,"changing":9206,"Ġvehe":9207,"ĠHelp":9208,"Ġagony":9209,"Ġagreement":9210,"Ġwhipped":9211,"Ġwatchful":9212,"Ġdistemper":9213,"Seeking":9214,"Ġacting":9215,"Ġwasted":9216,"Ġwondering":9217,"Ġbites":9218,"Ġbiting":9219,"Ġstole":9220,"Ġstirru":9221,"Ġclouded":9222,"suing":9223,"Ġdrinks":9224,"Ġpraised":9225,"Ġenterpr":9226,"voury":9227,"Ġfitter":9228,"Ġgarlic":9229,"Ġchangeling":9230,"Ġdeliverance":9231,"LORDS":9232,"ĠThink":9233,"Ġskin":9234,"Ġsickly":9235,"Ġsignories":9236,"Ġwishes":9237,"Ġregion":9238,"Ġregreet":9239,"Ġconsuls":9240,"Ġcheerful":9241,"Ġordering":9242,"Ġorderly":9243,"Ġfourth":9244,"Ġdug":9245,"Ġducats":9246,"Ġliberties":9247,"verns":9248,"Ġmoveables":9249,"shell":9250,"sheathe":9251,"Ġfrowning":9252,"Ġfeasting":9253,"Ġgrove":9254,"Ġsoften":9255,"Ġbeggary":9256,"Ġconsented":9257,"Revol":9258,"ĠForrest":9259,"hematic":9260,"Ġbarb":9261,"Ġbarr":9262,"Ġbargain":9263,"Ġdropp":9264,"Ġdarken":9265,"Ġdarkly":9266,"Ġcrad":9267,"Ġcrimes":9268,"Ġcrutch":9269,"ĠChurch":9270,"Ġexpost":9271,"Ġgotten":9272,"Ġintercept":9273,"Ġintercession":9274,"Ġevident":9275,"Ġsummon":9276,"Ġvictorious":9277,"Ġrespects":9278,"Ġbriefly":9279,"Ġvisiting":9280,"Ġmalicious":9281,"Ġspeechless":9282,"Ġworshipful":9283,"spo":9284,"Ġfresher":9285,"Ġfreshest":9286,"Ġlimb":9287,"Ġpenury":9288,"Ġpenny":9289,"ĠPlace":9290,"ĠPlayer":9291,"ĠPlashy":9292,"Ġleader":9293,"Ġpatiently":9294,"Ġlamentations":9295,"Ġbroils":9296,"Ġbawdy":9297,"Ġcleft":9298,"Ġcreation":9299,"Ġcapable":9300,"Ġcapital":9301,"Ġlacks":9302,"Ġopposed":9303,"Ġeating":9304,"Ġviolate":9305,"Ġapproaches":9306,"Ġcomplices":9307,"ĠChristendom":9308,"Ġsurm":9309,"Ġsurly":9310,"Ġsurvey":9311,"Conf":9312,"Plain":9313,"Pluck":9314,"Ġbirths":9315,"arlisle":9316,"Ġpainful":9317,"Ġbecame":9318,"Standing":9319,"Ġtorches":9320,"Ġtorments":9321,"Ġwildly":9322,"Ġcaus":9323,"Ġcertainly":9324,"semary":9325,"Ġinjured":9326,"Ġinnocency":9327,"Ġurging":9328,"Thinking":9329,"ĠStand":9330,"ĠStaff":9331,"Ġpleasures":9332,"Mariner":9333,"Ġapothecary":9334,"Ġshock":9335,"Ġmeditation":9336,"Ġobst":9337,"Ġobdur":9338,"Ġoblivion":9339,"Ġdooms":9340,"Ġfavourable":9341,"Ġuncertain":9342,"ighbours":9343,"ĠEnglishman":9344,"Ġlane":9345,"settled":9346,"Ġrefuge":9347,"ĠMercury":9348,"Ġtempor":9349,"Enforce":9350,"Envir":9351,"bborn":9352,"himself":9353,"Ġdrowning":9354,"angled":9355,"Ġeffects":9356,"Ġswiftly":9357,"ĠPrithee":9358,"Ġdesperately":9359,"Ġdoublet":9360,"Meaning":9361,"Ġauthorities":9362,"Ġfruits":9363,"Ġelders":9364,"Ġstudies":9365,"Ġstudied":9366,"Ġenjoys":9367,"Ġwretchedness":9368,"Brought":9369,"eye":9370,"eyed":9371,"Ġbastardy":9372,"Ġcorners":9373,"Ġhelms":9374,"stantial":9375,"Ġdegenerate":9376,"Ġseverity":9377,"ĠWilloughby":9378,"Ġcountermand":9379,"Ġcounterpo":9380,"Ġbeggarly":9381,"Loved":9382,"monstrous":9383,"Ġdwelling":9384,"Ġgentry":9385,"Ġbutchers":9386,"Ġunfit":9387,"Ġadded":9388,"Ġprivately":9389,"Ġverge":9390,"Ġverity":9391,"attling":9392,"Ġrelation":9393,"Ġrelieve":9394,"Ġdealing":9395,"Ġarrival":9396,"Ġsmoking":9397,"Blind":9398,"Desp":9399,"Except":9400,"constable":9401,"Ġbait":9402,"Ġstabbed":9403,"Ġspeeches":9404,"Ġshores":9405,"Ġproofs":9406,"Ġjointure":9407,"Ġprophecies":9408,"Ġembracements":9409,"Ġinnocents":9410,"Adieu":9411,"Advance":9412,"Ġedict":9413,"Ġwagon":9414,"rehend":9415,"Ġelection":9416,"Ġelements":9417,"Ġdecree":9418,"Ġdecrees":9419,"Ġnecessary":9420,"Ġnecessities":9421,"Ġsailors":9422,"Ġprevails":9423,"Rescue":9424,"Ġescap":9425,"ĠWherefore":9426,"Ġoffenders":9427,"Ġheaviness":9428,"Ġheavily":9429,"Showing":9430,"Ġprofession":9431,"Ġexpressly":9432,"appare":9433,"proud":9434,"Ġbandy":9435,"Ġbondage":9436,"Ġdetested":9437,"Ġcalf":9438,"Ġphysicians":9439,"Ġvanqu":9440,"Ġvanish":9441,"Ġdeserts":9442,"Ġtransg":9443,"Ġaffected":9444,"Ġleanness":9445,"Ġaccusations":9446,"Ġpunishment":9447,"Repair":9448,"Ġbasil":9449,"Ġfeeble":9450,"Ġfashions":9451,"Ġdivers":9452,"Ġports":9453,"Ġportion":9454,"Ġbewray":9455,"Ġcomplete":9456,"Ġambush":9457,"Ġambassad":9458,"Ġargument":9459,"Ġarguments":9460,"ĠProceed":9461,"Ġadvancement":9462,"Ġpersuaded":9463,"Ġpetitions":9464,"Ġsolemnity":9465,"Bearing":9466,"Heavens":9467,"exec":9468,"score":9469,"itae":9470,"Ġhostess":9471,"Ġobscured":9472,"Ġshunn":9473,"Ġblocks":9474,"Ġquality":9475,"Ġqualities":9476,"Ġqualify":9477,"Ġalteration":9478,"Ġmaidenhead":9479,"Ġvexation":9480,"Setting":9481,"brain":9482,"Ġmorsel":9483,"Ġdigest":9484,"Ġthorny":9485,"Ġsprites":9486,"ĠCobham":9487,"Ġcombat":9488,"Ġworthier":9489,"Ġworthiest":9490,"Ġjewels":9491,"ĠAdam":9492,"ĠAdieu":9493,"Ġdisperse":9494,"Ġclamorous":9495,"Ġdirectly":9496,"Accursed":9497,"maids":9498,"shapen":9499,"weary":9500,"Ġsymp":9501,"Ġsalute":9502,"Ġfiends":9503,"Ġdimm":9504,"Ġdriven":9505,"Ġceremony":9506,"Ġlinen":9507,"Ġhorrible":9508,"Ġpikes":9509,"Ġforsook":9510,"Ġreckless":9511,"Ġunjustly":9512,"Ġenforcement":9513,"Ġdissembling":9514,"Ġfloods":9515,"Ġrestrain":9516,"Ġresisted":9517,"Ġaffliction":9518,"Ġreconciled":9519,"Ġhelmets":9520,"Ġcomplexions":9521,"Imagine":9522,"Knows":9523,"Quick":9524,"Rich":9525,"Richmond":9526,"Smile":9527,"boding":9528,"ratitude":9529,"warrant":9530,"Ġtimorous":9531,"oubted":9532,"Ġmirror":9533,"Ġmessage":9534,"inctly":9535,"Ġbuckle":9536,"Ġdifferen":9537,"Ġdifference":9538,"Ġlineal":9539,"Ġgrub":9540,"Ġstumbled":9541,"Ġreceives":9542,"Ġreceipt":9543,"Ġshameless":9544,"Ġfactious":9545,"Ġdispleased":9546,"Ġdisguise":9547,"Ġcoffin":9548,"Ġcoffers":9549,"Ġgratis":9550,"Ġincense":9551,"Ġacquaintance":9552,"Awaked":9553,"Darest":9554,"Witness":9555,"Withal":9556,"pretation":9557,"Ġtoucheth":9558,"Ġtrod":9559,"Ġbonny":9560,"Ġfretting":9561,"Ġnettle":9562,"Ġlurk":9563,"Ġlurking":9564,"Ġthirsty":9565,"Ġhomicide":9566,"Ġhighest":9567,"Ġtoys":9568,"Ġwealthy":9569,"Ġspectacle":9570,"Ġblasts":9571,"ĠValent":9572,"ĠValeria":9573,"Ġhopeless":9574,"Ġengross":9575,"Ġflinty":9576,"Ġbeguiled":9577,"Ġsubdue":9578,"Ġsubdued":9579,"Ġbeauties":9580,"Ġbeautiful":9581,"Ġsacrifice":9582,"Ġlengthens":9583,"Brave":9584,"Persuade":9585,"Persuades":9586,"Write":9587,"called":9588,"contin":9589,"Ġsession":9590,"Ġmathematic":9591,"Ġporter":9592,"Ġpainting":9593,"Ġgnaw":9594,"Ġgainsay":9595,"seeming":9596,"Ġgossips":9597,"Ġuneven":9598,"Ġunrevere":9599,"Ġprodigy":9600,"Ġprodigal":9601,"Ġencourage":9602,"Ġdisinherit":9603,"Ġdisinherited":9604,"Ġabundant":9605,"Ġabundance":9606,"Ġrobbers":9607,"Ġcontrol":9608,"Ġcontroversy":9609,"Ġaccomplish":9610,"Ġtrenches":9611,"Ġbuzzard":9612,"Ġattorneys":9613,"Ġdrooping":9614,"Ġembraced":9615,"Ġobsequies":9616,"Ġdetestable":9617,"Acquaint":9618,"Caius":9619,"beseeming":9620,"tinent":9621,"Ġmasqu":9622,"Ġbulk":9623,"Ġfifty":9624,"Ġfilthy":9625,"Ġcropp":9626,"Ġpowder":9627,"Ġpicture":9628,"Ġeffeminate":9629,"Ġstinking":9630,"Ġdeceased":9631,"Ġdeformity":9632,"Ġdoleful":9633,"Ġannoy":9634,"Ġancestors":9635,"Ġsparkling":9636,"ĠLovel":9637,"Ġplanet":9638,"ĠWestmin":9639,"Ġrheum":9640,"Ġrigour":9641,"Ġclergy":9642,"Ġeverlasting":9643,"Ġrumour":9644,"Ġaccompany":9645,"Ġchampion":9646,"Ġconfederate":9647,"Ġafterwards":9648,"Happily":9649,"Ġcriminal":9650,"Ġsummers":9651,"Ġinsinuate":9652,"Ġunprovided":9653,"Ġunluckily":9654,"Ġmagistrate":9655,"Ġlineaments":9656,"Ġsurprised":9657,"Ġfantastical":9658,"Ġmomentary":9659,"Banish":9660,"Deny":9661,"Destroy":9662,"Err":9663,"Renowned":9664,"married":9665,"minded":9666,"person":9667,"sometimes":9668,"withal":9669,"ĠUlysses":9670,"Ġturtle":9671,"Ġtinker":9672,"Ġtreaty":9673,"Ġacknowledge":9674,"Ġmantle":9675,"Ġderived":9676,"Ġdiligence":9677,"Ġdrowsy":9678,"Ġcandle":9679,"Ġyesternight":9680,"Ġominous":9681,"Ġgamut":9682,"Ġbeetle":9683,"Ġinveterate":9684,"Ġinvention":9685,"Ġinheritance":9686,"imois":9687,"Ġstubborn":9688,"Ġresemblance":9689,"ĠCleomenes":9690,"Ġvigour":9691,"Forthwith":9692,"ĠLammas":9693,"Ġorphans":9694,"Ġusurer":9695,"Ġunpleasing":9696,"Ġworships":9697,"ĠHappy":9698,"ĠAmazon":9699,"Ġdisloyal":9700,"Ġexclaims":9701,"ĠTurks":9702,"Ġprecise":9703,"Ġscourge":9704,"Ġchivalry":9705,"Ġappellant":9706,"Ġimmediately":9707,"ĠJerusale":9708,"ĠJuno":9709,"Ġconspiracy":9710,"Ġchafed":9711,"Ġsuppliant":9712,"Ġinfringe":9713,"Ġinfirmity":9714,"Ġminstrels":9715,"Ġdistinguish":9716,"Ġmalignant":9717,"Ġargosy":9718,"scaped":9719,"Pursuivant":9720,"Ġeloquence":9721,"BLUNT":9722,"Breathe":9723,"Children":9724,"EARL":9725,"FRANCIS":9726,"Glad":9727,"Hostess":9728,"Juliet":9729,"Merely":9730,"Perchance":9731,"Senators":9732,"Souls":9733,"Stop":9734,"Tongue":9735,"creature":9736,"corner":9737,"danger":9738,"igeia":9739,"makers":9740,"ozine":9741,"Ġtumult":9742,"Ġsurname":9743,"Ġbustle":9744,"Ġbauble":9745,"Ġbashful":9746,"Ġfuture":9747,"Ġnineteen":9748,"Ġlazy":9749,"Ġthreefold":9750,"Ġpoorest":9751,"Ġgirls":9752,"athaniel":9753,"Ġsteterat":9754,"Ġstratagems":9755,"Ġkennel":9756,"ascivious":9757,"Ġseparated":9758,"Ġsulphur":9759,"Ġanguish":9760,"ĠCastle":9761,"ĠRagozine":9762,"Ġviolet":9763,"Ġshepherds":9764,"ĠLudlow":9765,"ĠSixth":9766,"ĠSebastian":9767,"ĠSALISBURY":9768,"ĠBristol":9769,"ĠBrandon":9770,"Ġunawares":9771,"Ġunaccustom":9772,"ĠHallowmas":9773,"ĠAbhorson":9774,"Ġsomebody":9775,"Ġadulteress":9776,"ĠDelphos":9777,"Ġsubscribe":9778,"ĠMontgomery":9779,"Ġenterprise":9780,"ĠStafford":9781,"Ġobdurate":9782,"Ġmathematics":9783,"ĠWestminster":9784,"ĠJerusalem":9785,"'m":9786,"'ve":9787,"Aim":9788,"Ant":9789,"Ariel":9790,"Bu":9791,"Bea":9792,"Bare":9793,"Been":9794,"Base":9795,"Bianca":9796,"Boot":9797,"Bishop":9798,"Bushy":9799,"Brief":9800,"Cor":9801,"Cur":9802,"Chan":9803,"CARD":9804,"Crown":9805,"Cull":9806,"Certain":9807,"Coun":9808,"Cambio":9809,"Cuts":9810,"Captain":9811,"Dre":9812,"Day":9813,"Dra":9814,"Done":9815,"Dry":9816,"Dig":9817,"Del":9818,"Dull":9819,"Deep":9820,"Dorset":9821,"During":9822,"EAS":9823,"Emb":9824,"Earth":9825,"Fan":9826,"Four":9827,"Fam":9828,"Fast":9829,"Fare":9830,"Further":9831,"Gro":9832,"Gave":9833,"Gremio":9834,"Grim":9835,"Grief":9836,"Him":9837,"Hea":9838,"HEY":9839,"Holl":9840,"Honour":9841,"Hover":9842,"Honest":9843,"Half":9844,"Iron":9845,"Joy":9846,"Jove":9847,"John":9848,"Killing":9849,"Le":9850,"Lim":9851,"Lau":9852,"List":9853,"Learn":9854,"Laid":9855,"Lift":9856,"Lament":9857,"Lascivious":9858,"Mond":9859,"Meet":9860,"Merc":9861,"Matter":9862,"Mont":9863,"Mars":9864,"Maid":9865,"Mortal":9866,"Menenius":9867,"New":9868,"Need":9869,"Nature":9870,"Pe":9871,"Po":9872,"Pom":9873,"Ple":9874,"Pri":9875,"Pra":9876,"Past":9877,"Pity":9878,"Pass":9879,"Pret":9880,"Padua":9881,"Pisa":9882,"Prick":9883,"Ra":9884,"Rec":9885,"Rise":9886,"Rage":9887,"RIST":9888,"Sk":9889,"Sl":9890,"Sn":9891,"Sed":9892,"Sith":9893,"Sher":9894,"Sea":9895,"Saint":9896,"Sister":9897,"Spl":9898,"Sham":9899,"Suff":9900,"Sorry":9901,"Safe":9902,"Silence":9903,"Simois":9904,"Ty":9905,"Tor":9906,"Thi":9907,"Tear":9908,"Tend":9909,"Tick":9910,"Tears":9911,"Taking":9912,"Tread":9913,"Troth":9914,"Taste":9915,"TIT":9916,"Temper":9917,"Tribunes":9918,"Us":9919,"Vis":9920,"VEL":9921,"Vince":9922,"Vile":9923,"Verona":9924,"Wear":9925,"Wind":9926,"Wish":9927,"Wise":9928,"Wrong":9929,"Words":9930,"Wrench":9931,"York":9932,"ah":9933,"avy":9934,"acheth":9935,"avoury":9936,"bu":9937,"bet":9938,"bion":9939,"bout":9940,"both":9941,"bound":9942,"been":9943,"bew":9944,"bary":9945,"bring":9946,"brows":9947,"bawd":9948,"bishop":9949,"cr":9950,"cre":9951,"cer":9952,"cke":9953,"crow":9954,"cum":9955,"cold":9956,"cass":9957,"cause":9958,"cup":9959,"cures":9960,"cover":9961,"cote":9962,"cerity":9963,"did":9964,"dam":9965,"die":9966,"del":9967,"dges":9968,"dying":9969,"dares":9970,"ev":9971,"ece":9972,"even":9973,"ection":9974,"fes":9975,"fear":9976,"fast":9977,"five":9978,"fond":9979,"fig":9980,"fire":9981,"face":9982,"fied":9983,"fool":9984,"fair":9985,"finger":9986,"false":9987,"front":9988,"gent":9989,"gess":9990,"god":9991,"gger":9992,"gier":9993,"gments":9994,"gentleman":9995,"gging":9996,"goose":9997,"hot":9998,"home":9999,"hum":10000,"hings":10001,"hunt":10002,"hours":10003,"hrew":10004,"horses":10005,"honest":10006,"ii":10007,"ipher":10008,"iency":10009,"iercing":10010,"journ":10011,"jurious":10012,"known":10013,"knew":10014,"kfulness":10015,"lore":10016,"lant":10017,"lady":10018,"lings":10019,"lars":10020,"mor":10021,"mend":10022,"mother":10023,"mod":10024,"mple":10025,"mock":10026,"mark":10027,"music":10028,"mmer":10029,"mouth":10030,"motion":10031,"mitted":10032,"masters":10033,"mercy":10034,"maker":10035,"nz":10036,"nit":10037,"non":10038,"ned":10039,"nard":10040,"nity":10041,"nable":10042,"nounce":10043,"oan":10044,"oil":10045,"oise":10046,"ogy":10047,"pit":10048,"pan":10049,"pill":10050,"pur":10051,"pore":10052,"pate":10053,"purse":10054,"power":10055,"pile":10056,"position":10057,"pointed":10058,"prison":10059,"pipe":10060,"persu":10061,"rot":10062,"rine":10063,"round":10064,"rite":10065,"ruth":10066,"rons":10067,"sm":10068,"sight":10069,"sound":10070,"suck":10071,"ssed":10072,"spect":10073,"said":10074,"silence":10075,"sky":10076,"simple":10077,"tre":10078,"tri":10079,"test":10080,"town":10081,"turn":10082,"tide":10083,"talk":10084,"tail":10085,"trust":10086,"teeth":10087,"truly":10088,"ux":10089,"uit":10090,"ugh":10091,"uct":10092,"uel":10093,"uance":10094,"uft":10095,"uities":10096,"ucal":10097,"ucing":10098,"uiced":10099,"vors":10100,"virt":10101,"vouch":10102,"vict":10103,"vial":10104,"vals":10105,"wore":10106,"wood":10107,"west":10108,"wall":10109,"wish":10110,"wag":10111,"wilt":10112,"walk":10113,"wonder":10114,"words":10115,"wooing":10116,"xy":10117,"yers":10118,"yves":10119,"years":10120,"youth":10121,"zes":10122,"zalo":10123,"Ġ:":10124,"Ġess":10125,"ĠThat":10126,"ĠUpon":10127,"Ġounce":10128,"ĠQu":10129,"Ġtar":10130,"Ġtesty":10131,"Ġtush":10132,"Ġtithe":10133,"Ġtires":10134,"Ġtaming":10135,"Ġtables":10136,"Ġtalks":10137,"Ġtabour":10138,"Ġthaw":10139,"Ġtuft":10140,"heer":10141,"hear":10142,"heir":10143,"heth":10144,"heres":10145,"heads":10146,"Ġaed":10147,"Ġaut":10148,"Ġaus":10149,"Ġache":10150,"Ġapes":10151,"Ġavail":10152,"Ġaqua":10153,"Ġavouch":10154,"ouched":10155,"ourest":10156,"Ġsce":10157,"Ġsout":10158,"Ġsci":10159,"Ġserving":10160,"Ġsip":10161,"Ġsainted":10162,"Ġsize":10163,"Ġmam":10164,"Ġmoth":10165,"Ġmol":10166,"Ġmaw":10167,"Ġmalm":10168,"Ġmatt":10169,"Ġmakest":10170,"Ġmature":10171,"Ġmusc":10172,"Ġmuddy":10173,"init":10174,"inst":10175,"inch":10176,"inent":10177,"inest":10178,"inand":10179,"inter":10180,"inant":10181,"inish":10182,"inence":10183,"into":10184,"inary":10185,"inning":10186,"inions":10187,"Ġwive":10188,"Ġwool":10189,"Ġwield":10190,"Ġwip":10191,"Ġwaded":10192,"reb":10193,"reck":10194,"requ":10195,"rection":10196,"recy":10197,"having":10198,"hapen":10199,"Ġbout":10200,"Ġbough":10201,"Ġbower":10202,"Ġbull":10203,"Ġbled":10204,"Ġbiss":10205,"Ġbits":10206,"Ġbitt":10207,"Ġbars":10208,"Ġbaked":10209,"Ġborough":10210,"Ġbias":10211,"Ġbunch":10212,"Ġbattery":10213,"isans":10214,"isheth":10215,"ora":10216,"oro":10217,"orst":10218,"orable":10219,"orks":10220,"orged":10221,"orcester":10222,"orpor":10223,"Ġfay":10224,"Ġfust":10225,"Ġfel":10226,"Ġfert":10227,"Ġfade":10228,"Ġfitt":10229,"Ġfours":10230,"Ġfined":10231,"Ġfume":10232,"Ġfurious":10233,"Ġfaded":10234,"Ġfishes":10235,"Ġfidd":10236,"Ġfuel":10237,"eral":10238,"erver":10239,"erth":10240,"erry":10241,"erick":10242,"erness":10243,"erbear":10244,"erately":10245,"erpast":10246,"erween":10247,"lled":10248,"itle":10249,"itter":10250,"itic":10251,"itied":10252,"itud":10253,"itary":10254,"itution":10255,"ittering":10256,"itzwater":10257,"onition":10258,"onesty":10259,"onzalo":10260,"Ġdul":10261,"Ġdart":10262,"Ġdive":10263,"Ġdau":10264,"Ġdall":10265,"Ġdough":10266,"Ġdates":10267,"Ġdirt":10268,"Ġdial":10269,"Ġdaunt":10270,"Ġdump":10271,"Ġdally":10272,"Ġdiff":10273,"Ġdawn":10274,"Ġdaff":10275,"Ġdarts":10276,"Ġdumps":10277,"Ġcu":10278,"Ġcod":10279,"Ġcel":10280,"Ġcoy":10281,"Ġcull":10282,"Ġcable":10283,"Ġcitizen":10284,"Ġcakes":10285,"Ġcured":10286,"Ġcats":10287,"Ġcures":10288,"Ġcuff":10289,"Ġcities":10290,"Ġcott":10291,"Ġcamp":10292,"Ġcater":10293,"Ġcrick":10294,"Ġcyp":10295,"Ġcipher":10296,"esnes":10297,"enel":10298,"enious":10299,"encounter":10300,"enances":10301,"Ġnim":10302,"Ġnation":10303,"Ġnurs":10304,"Ġnuts":10305,"Ġnavy":10306,"Ġla":10307,"Ġlure":10308,"Ġlime":10309,"Ġlag":10310,"Ġlave":10311,"Ġlatter":10312,"Ġlump":10313,"Ġlackey":10314,"Ġlitter":10315,"Ġyard":10316,"Ġthigh":10317,"Ġthrows":10318,"Ġthimble":10319,"Ġthorough":10320,"arr":10321,"arce":10322,"arri":10323,"arallel":10324,"arbary":10325,"Ġhy":10326,"Ġhound":10327,"Ġhild":10328,"Ġhides":10329,"Ġhoop":10330,"Ġhunts":10331,"Ġhyp":10332,"Ġhugg":10333,"Ġoil":10334,"Ġtot":10335,"Ġtore":10336,"Ġtokens":10337,"Ġps":10338,"Ġply":10339,"Ġpea":10340,"Ġpru":10341,"Ġpout":10342,"Ġpond":10343,"Ġpence":10344,"Ġpins":10345,"Ġpile":10346,"Ġpars":10347,"Ġponder":10348,"Ġpump":10349,"Ġpip":10350,"Ġpities":10351,"Ġpelting":10352,"Ġphra":10353,"hating":10354,"ĠImp":10355,"Ġhent":10356,"Ġhewn":10357,"Ġheated":10358,"Ġhearers":10359,"vex":10360,"vels":10361,"otent":10362,"otche":10363,"otions":10364,"otpan":10365,"stal":10366,"stain":10367,"stock":10368,"stones":10369,"strange":10370,"anied":10371,"anched":10372,"annib":10373,"omy":10374,"ominable":10375,"Ġgas":10376,"Ġgore":10377,"Ġgest":10378,"Ġgun":10379,"Ġglo":10380,"Ġgale":10381,"Ġgird":10382,"Ġgiv":10383,"Ġgees":10384,"Ġgames":10385,"Ġgazed":10386,"Ġgamb":10387,"Ġgilly":10388,"Ġgasp":10389,"Ġghast":10390,"Ġgyves":10391,"atal":10392,"attle":10393,"atisf":10394,"Ġbeck":10395,"Ġbeam":10396,"Ġbede":10397,"Ġbeards":10398,"Ġbeheaded":10399,"Ġbemo":10400,"seed":10401,"sever":10402,"seven":10403,"sembles":10404,"Ġinher":10405,"Ġinde":10406,"Ġinches":10407,"Ġinvest":10408,"Ġinex":10409,"Ġinforced":10410,"Ġinvoc":10411,"Ġinhum":10412,"cease":10413,"cember":10414,"Ġhal":10415,"Ġhay":10416,"Ġhack":10417,"Ġhagg":10418,"Ġhaunts":10419,"Ġhammer":10420,"lem":10421,"learn":10422,"aynard":10423,"ldst":10424,"irand":10425,"etry":10426,"ediness":10427,"edeem":10428,"utor":10429,"utish":10430,"utiful":10431,"utoly":10432,"Ġmeas":10433,"Ġmeek":10434,"imy":10435,"imer":10436,"imon":10437,"ithmet":10438,"Ġnothings":10439,"chion":10440,"church":10441,"chbishop":10442,"Ġfork":10443,"Ġforged":10444,"Ġforges":10445,"Ġforfend":10446,"Ġforfeits":10447,"keeping":10448,"Ġwean":10449,"Ġwealt":10450,"Ġweeks":10451,"ooch":10452,"oosing":10453,"Ġeaster":10454,"Ġeats":10455,"Ġepit":10456,"hers":10457,"herds":10458,"Ġwithholds":10459,"entation":10460,"Ġitch":10461,"add":10462,"ading":10463,"adies":10464,"adition":10465,"adders":10466,"rid":10467,"ripp":10468,"ride":10469,"rivener":10470,"Ġstam":10471,"Ġstif":10472,"Ġstake":10473,"Ġstings":10474,"Ġstee":10475,"Ġstuck":10476,"Ġstates":10477,"Ġstair":10478,"Ġstains":10479,"Ġstony":10480,"Ġstaves":10481,"Ġstumbling":10482,"Ġkitche":10483,"Ġhiss":10484,"ids":10485,"idity":10486,"ideth":10487,"idels":10488,"ashing":10489,"assed":10490,"asury":10491,"Ġreel":10492,"Ġreins":10493,"Ġreek":10494,"Ġrenew":10495,"Ġrevoke":10496,"Ġrenounce":10497,"Ġrehear":10498,"Ġresembles":10499,"lymp":10500,"ram":10501,"rain":10502,"rained":10503,"raught":10504,"ramed":10505,"racted":10506,"Ġliver":10507,"Ġlibr":10508,"Ġlicence":10509,"url":10510,"alian":10511,"alms":10512,"Ġsol":10513,"Ġsops":10514,"Ġsoever":10515,"Ġsoothing":10516,"Ġsoothe":10517,"Ġasks":10518,"Ġasunder":10519,"Ġdeem":10520,"Ġdeity":10521,"Ġdeign":10522,"rob":10523,"roses":10524,"roying":10525,"hic":10526,"hily":10527,"hips":10528,"oody":10529,"estim":10530,"Ġshaped":10531,"eaf":10532,"Ġdoers":10533,"Ġdoff":10534,"Ġwillow":10535,"amour":10536,"amine":10537,"Ġnodd":10538,"Ġnoisome":10539,"Ġnovice":10540,"usan":10541,"usband":10542,"uspect":10543,"ushed":10544,"andon":10545,"ifs":10546,"ifies":10547,"ificial":10548,"Ġseed":10549,"Ġseats":10550,"Ġseals":10551,"Ġseeds":10552,"Ġselves":10553,"genders":10554,"Threw":10555,"Thomas":10556,"Ġally":10557,"Ġallied":10558,"Ġsums":10559,"runk":10560,"thine":10561,"thread":10562,"tern":10563,"Ġlogs":10564,"Ġlosing":10565,"Ġlolling":10566,"Ġlogger":10567,"hankfulness":10568,"ellist":10569,"earing":10570,"Ġspies":10571,"Ġspran":10572,"Ġspray":10573,"Ġspright":10574,"Ġspawn":10575,"Ġsparing":10576,"Ġspacious":10577,"Ġsprung":10578,"iless":10579,"ilities":10580,"iliments":10581,"ĠCon":10582,"ĠCret":10583,"ĠCousin":10584,"ĠCarlisle":10585,"ĠCheer":10586,"romise":10587,"Ġnecks":10588,"Ġnephe":10589,"hod":10590,"hose":10591,"holesome":10592,"Ġknack":10593,"Ġknots":10594,"ĠRe":10595,"ĠRather":10596,"ĠRedeem":10597,"Ġvall":10598,"Ġvail":10599,"Ġvaunt":10600,"Ġvouchsafe":10601,"Ġvouches":10602,"Ġvizard":10603,"Ġvitae":10604,"ERKE":10605,"Ġshy":10606,"Ġshin":10607,"Ġshining":10608,"anting":10609,"Ġupholds":10610,"quer":10611,"ques":10612,"quent":10613,"quire":10614,"question":10615,"arting":10616,"aths":10617,"athy":10618,"onely":10619,"oneous":10620,"Ġprone":10621,"Ġpratest":10622,"Ġprank":10623,"Ġproro":10624,"Ġprattle":10625,"Ġcomfor":10626,"Ġmanors":10627,"Ġmansion":10628,"Whatever":10629,"ĠMake":10630,"ĠMost":10631,"ĠMort":10632,"ĠMON":10633,"ĠMamill":10634,"ĠMEAS":10635,"ĠMirand":10636,"ĠEre":10637,"ĠEthi":10638,"ĠExton":10639,"ĠEcho":10640,"Ġample":10641,"Ġamount":10642,"Ġampl":10643,"Ġambling":10644,"ics":10645,"icite":10646,"Ġconn":10647,"Ġcony":10648,"Ġconst":10649,"Ġconvenient":10650,"Ġcongeal":10651,"ieving":10652,"Ġblench":10653,"Ġbloss":10654,"Ġblushes":10655,"Ġblank":10656,"Ġblanks":10657,"venged":10658,"ĠGall":10659,"ĠGlou":10660,"ĠGrace":10661,"ĠGonzalo":10662,"Fors":10663,"Force":10664,"Forced":10665,"Fortune":10666,"Forswear":10667,"Ġsheer":10668,"Ġsheet":10669,"Ġsheath":10670,"ements":10671,"embra":10672,"emaker":10673,"embered":10674,"empore":10675,"arest":10676,"outham":10677,"aucas":10678,"Held":10679,"Heir":10680,"Helen":10681,"olate":10682,"olation":10683,"olution":10684,"olitan":10685,"ology":10686,"ĠLy":10687,"ĠLend":10688,"ĠLuke":10689,"ĠLiby":10690,"Ġhates":10691,"LOVEL":10692,"indeed":10693,"Ġthereon":10694,"Ġtherewithal":10695,"Ġcanon":10696,"Ġcancell":10697,"ephen":10698,"few":10699,"fered":10700,"ondam":10701,"ondrous":10702,"resolved":10703,"resseth":10704,"ateful":10705,"Ġhereof":10706,"Ġheretic":10707,"Ġloveth":10708,"Ġlovelier":10709,"Ġswan":10710,"Ġswept":10711,"Ġswarm":10712,"Ġbrood":10713,"Ġbrats":10714,"Ġbrutish":10715,"Ġbrooch":10716,"ppers":10717,"Ġorb":10718,"Ġorison":10719,"Ġorators":10720,"Ġorange":10721,"Ġoratory":10722,"allible":10723,"ĠSh":10724,"ĠSon":10725,"ĠSend":10726,"ĠSure":10727,"ĠSince":10728,"ĠSuff":10729,"ĠSigeia":10730,"ĠSusan":10731,"ĠSoutham":10732,"Ġusest":10733,"Ġusual":10734,"Ġusurps":10735,"ĠOlymp":10736,"ĠBest":10737,"ĠBarbary":10738,"ĠBaynard":10739,"ĠBERKE":10740,"Ġarrog":10741,"Ġarraign":10742,"ody":10743,"odes":10744,"odils":10745,"Ġlethar":10746,"Ġletting":10747,"Ġunable":10748,"Ġunfort":10749,"Ġunking":10750,"Ġunspeak":10751,"Ġunadvised":10752,"Ġungovern":10753,"Ġunpeople":10754,"Ġunhapp":10755,"Ġunquiet":10756,"Ġunhallow":10757,"Ġunsettled":10758,"igm":10759,"igs":10760,"igen":10761,"igate":10762,"igree":10763,"inkle":10764,"ĠHoo":10765,"ĠHence":10766,"ĠHouse":10767,"ĠHung":10768,"ĠHoll":10769,"ĠHang":10770,"ĠHacket":10771,"ĠHugh":10772,"orts":10773,"ortive":10774,"ortham":10775,"ĠVarri":10776,"Ask":10777,"Ascend":10778,"Assist":10779,"elier":10780,"Ġquaff":10781,"Ġquondam":10782,"Ġjay":10783,"Ġjars":10784,"Ġjaunt":10785,"Ġjades":10786,"Ġjog":10787,"reation":10788,"aketh":10789,"ounding":10790,"Ġgraver":10791,"Ġgrains":10792,"Ġgravity":10793,"Ġholl":10794,"Ġhoard":10795,"Ġhoping":10796,"Ġproves":10797,"Ġproli":10798,"Ġpropose":10799,"Ġproject":10800,"Ġprobation":10801,"Ġprolong":10802,"ĠPeace":10803,"ĠPotpan":10804,"Ġsaves":10805,"Ġsavours":10806,"Ġmadmen":10807,"umm":10808,"uming":10809,"umbly":10810,"ummon":10811,"Ġplight":10812,"Ġplough":10813,"Ġplots":10814,"Ġplume":10815,"Ġplagues":10816,"AUGH":10817,"peer":10818,"enced":10819,"ĠWith":10820,"ĠWood":10821,"ĠWhich":10822,"ĠWere":10823,"ĠWorcester":10824,"ists":10825,"isted":10826,"many":10827,"Ġencl":10828,"Ġencom":10829,"Ġencoun":10830,"Ġenvir":10831,"Ġensign":10832,"Ġensuing":10833,"Ġengenders":10834,"unction":10835,"uncle":10836,"Ġrar":10837,"Ġrat":10838,"Ġrite":10839,"Ġrounds":10840,"Ġrayed":10841,"Ġrhyme":10842,"Ġpoets":10843,"Ġpoetry":10844,"decess":10845,"deceiving":10846,"Ġoutside":10847,"pton":10848,"Ġfrivol":10849,"Ġhowling":10850,"ĠAre":10851,"ĠArt":10852,"ĠAbra":10853,"ĠAutoly":10854,"Ġhandled":10855,"ignation":10856,"Ġwhoever":10857,"Ġmarches":10858,"irer":10859,"harm":10860,"harp":10861,"Inst":10862,"Inter":10863,"Incl":10864,"Injurious":10865,"Inquire":10866,"ĠYe":10867,"ĠYorks":10868,"Ġdispose":10869,"Ġdisfig":10870,"Weep":10871,"Weigh":10872,"Weeping":10873,"wness":10874,"Ġheaved":10875,"Ġheaps":10876,"Ġhearken":10877,"Ġhearkens":10878,"ecess":10879,"Oft":10880,"Ġbloods":10881,"Ġabound":10882,"Ġabject":10883,"Ġabides":10884,"Ġabominable":10885,"Ġabandon":10886,"Ġabortive":10887,"Ġfoem":10888,"Ġfoison":10889,"Ġearls":10890,"Ġroe":10891,"Ġrobe":10892,"Ġroots":10893,"Ġroared":10894,"Ġrosemary":10895,"Ġexiled":10896,"Ġexamp":10897,"Ġexcels":10898,"eeting":10899,"Sold":10900,"Ġeyed":10901,"Ġwhereupon":10902,"agon":10903,"agion":10904,"agab":10905,"agued":10906,"Ġdeserving":10907,"Ġdesiring":10908,"Ġdesperation":10909,"avel":10910,"Ġgentlewomen":10911,"Howe":10912,"Ġriot":10913,"Ġrice":10914,"Ġrift":10915,"Ġrider":10916,"Ġribs":10917,"Ġricher":10918,"Ġribb":10919,"Ġrival":10920,"Ġrivals":10921,"Ġarts":10922,"Ġartificial":10923,"Whereby":10924,"Ġhonourably":10925,"Ġslower":10926,"Ġslumber":10927,"Ġslug":10928,"Ġslavish":10929,"Ġwarp":10930,"Ġfling":10931,"Ġflout":10932,"Ġflap":10933,"Ġflung":10934,"Ġflayed":10935,"urnish":10936,"Ġhastily":10937,"Ġtwin":10938,"Ġtwos":10939,"Ġtwigs":10940,"ĠTrust":10941,"ĠTiber":10942,"Ġbetake":10943,"berate":10944,"berries":10945,"Ġbreeder":10946,"Ġbreech":10947,"ccess":10948,"Behind":10949,"aph":10950,"apert":10951,"ighing":10952,"ĠKates":10953,"ĠKnow":10954,"Whoever":10955,"Ġmenace":10956,"Ġcouch":10957,"Ġcouched":10958,"astery":10959,"Ġpartisans":10960,"reech":10961,"please":10962,"pleasure":10963,"Ġadds":10964,"Ġcommune":10965,"Ġstanders":10966,"Ġstandards":10967,"Ġclout":10968,"Ġcloth":10969,"Ġclime":10970,"Ġcloy":10971,"Ġclos":10972,"Ġclip":10973,"Ġclang":10974,"Ġclapp":10975,"Ġclutch":10976,"Ġclubs":10977,"Ġclusters":10978,"Ġpredom":10979,"Ġprecept":10980,"Ġprecip":10981,"Ġpreposterous":10982,"Ġprenz":10983,"Ġpredecess":10984,"Ġsweeten":10985,"Ġsweeting":10986,"Ġpraying":10987,"Ġprayed":10988,"ĠDear":10989,"ĠDoth":10990,"ĠDost":10991,"ĠDown":10992,"ĠDick":10993,"ĠDukes":10994,"ĠDighton":10995,"oused":10996,"Ġperch":10997,"Ġperfid":10998,"Ġperchance":10999,"Ġperadventure":11000,"Ġperceives":11001,"Ġpertinent":11002,"ulled":11003,"Therein":11004,"Thereon":11005,"Thereof":11006,"Ġheadlong":11007,"Ġmeanest":11008,"liest":11009,"licts":11010,"rederick":11011,"Ġscale":11012,"Ġscared":11013,"Ġscathe":11014,"Ġscurvy":11015,"Ġpresag":11016,"Ġpreservation":11017,"ainties":11018,"gery":11019,"perly":11020,"Ġrag":11021,"Ġrav":11022,"Ġrapt":11023,"Ġraged":11024,"Ġrags":11025,"Ġraising":11026,"Ġrazed":11027,"thest":11028,"abs":11029,"aby":11030,"ablish":11031,"abouts":11032,"ĠFri":11033,"ĠFerd":11034,"ĠFollow":11035,"ĠFitzwater":11036,"Ġapple":11037,"Ġappeach":11038,"Ġcontain":11039,"Ġcontend":11040,"Ġcontains":11041,"Ġcontracted":11042,"Ġcontagion":11043,"Ġremnant":11044,"swoln":11045,"Ġuntaught":11046,"Ġuntainted":11047,"Ġunthankfulness":11048,"Ġgraceful":11049,"Ġgraceless":11050,"Ġbegn":11051,"Ġbegs":11052,"Ġeyesight":11053,"landers":11054,"Ġmaim":11055,"INAL":11056,"ĠMarquis":11057,"Ġchildhood":11058,"Letters":11059,"Shed":11060,"Ġreplen":11061,"Ġreproach":11062,"Ġreprehend":11063,"Ġwombs":11064,"wicked":11065,"Ġafire":11066,"Ġafresh":11067,"ledged":11068,"ĠJames":11069,"ĠJustice":11070,"Ġrung":11071,"Ġruff":11072,"Ġrubs":11073,"Ġrubb":11074,"Ġconsents":11075,"Ġconspire":11076,"Ġpeep":11077,"Ġleather":11078,"Ġleash":11079,"log":11080,"uckle":11081,"Ġharp":11082,"Ġresting":11083,"Ġrestless":11084,"ercharged":11085,"Ġenters":11086,"Ġentail":11087,"chest":11088,"chess":11089,"Ġsetter":11090,"Ġsetting":11091,"orship":11092,"intell":11093,"Ġbetters":11094,"rants":11095,"Ġwitless":11096,"Ġwitty":11097,"cloth":11098,"Ġsleeve":11099,"Ġsleeves":11100,"Ġrespite":11101,"Ġrescued":11102,"fty":11103,"ierced":11104,"Ġtribe":11105,"Ġtrident":11106,"Ġtrivial":11107,"Ġmoons":11108,"rets":11109,"onted":11110,"Ġgripe":11111,"Notice":11112,"Ġbestir":11113,"Ġbestrew":11114,"Ġaccent":11115,"Ġaccents":11116,"Ġaccustom":11117,"Ġfollower":11118,"uding":11119,"udge":11120,"Ġendless":11121,"Ġkindle":11122,"Ġkindest":11123,"Ġprig":11124,"Ġpurg":11125,"Ġpurity":11126,"Ġpurblind":11127,"Ġcompet":11128,"ertainties":11129,"Ġtwofold":11130,"Ġchaos":11131,"Provo":11132,"Procure":11133,"Prodig":11134,"Profess":11135,"Provided":11136,"Proportion":11137,"Profan":11138,"Ġguide":11139,"Ġguile":11140,"Ġguides":11141,"Sirs":11142,"Ġsubs":11143,"Ġsubmit":11144,"Ġsubstantial":11145,"raybe":11146,"Ġsmear":11147,"Ġsmack":11148,"Ġsmock":11149,"Ġtrack":11150,"Ġtrained":11151,"Ġtravel":11152,"Ġtrample":11153,"Ġdregs":11154,"Ġcounts":11155,"Ġcountenances":11156,"Ġfinding":11157,"twenty":11158,"Ġtreads":11159,"Ġtreasures":11160,"Ġtreasury":11161,"Ġhighly":11162,"Stabb":11163,"Ġseemed":11164,"Ġhusbandry":11165,"Ġrighteous":11166,"Ġbanns":11167,"Ġbrake":11168,"Ġbraving":11169,"Ġcheat":11170,"Ġcheques":11171,"Ġcharter":11172,"ĠCitizens":11173,"Ġbrick":11174,"Ġbriers":11175,"Ġbridle":11176,"Ġchants":11177,"Ġchannel":11178,"Ġlawless":11179,"Ġlawyers":11180,"Ġshowing":11181,"Ġconfine":11182,"Ġconfounds":11183,"Ġconfident":11184,"Ġconfisc":11185,"beit":11186,"beat":11187,"before":11188,"begu":11189,"begot":11190,"Ġcog":11191,"Ġcox":11192,"Ġcoin":11193,"Ġcoil":11194,"Ġcoven":11195,"Ġcovet":11196,"Ġcocke":11197,"Ġglance":11198,"Ġglittering":11199,"Ġimpute":11200,"Ġimposition":11201,"Ġimpreg":11202,"Ġimplore":11203,"Alla":11204,"Ġdoubly":11205,"Ġeverything":11206,"Ġmista":11207,"Ġpassages":11208,"Ġpassado":11209,"Ġlighted":11210,"Ġlightens":11211,"Doing":11212,"Dogs":11213,"Ġnativity":11214,"Ġthrongs":11215,"ĠMARCIUS":11216,"Ġpardoning":11217,"Ġbesp":11218,"Ġbeseeming":11219,"Ġbeshrew":11220,"Ġhappen":11221,"Ġdevout":11222,"Ġdevised":11223,"Ġdevoted":11224,"Ġjustices":11225,"Ġmisc":11226,"Ġmisled":11227,"Ġmisdeed":11228,"Ġmisadventure":11229,"Ġmisdoubt":11230,"ensible":11231,"Ġlasts":11232,"Ġlastly":11233,"Ġstately":11234,"bler":11235,"black":11236,"Ġmeets":11237,"Ġunderstood":11238,"Ġkills":11239,"Ġkilling":11240,"Ġcareer":11241,"Ġcarefully":11242,"Ourselves":11243,"Ġfollowed":11244,"days":11245,"Ġfarmer":11246,"Ġlessen":11247,"Ġlessons":11248,"Ġhitherward":11249,"irts":11250,"Ġshameful":11251,"Ġeyebrows":11252,"Ġfalter":11253,"Ġfalchion":11254,"Ġfoolery":11255,"Ġpatrim":11256,"Ġsunset":11257,"Ġanswering":11258,"Ġchin":11259,"Ġchoosing":11260,"Ġchurl":11261,"Unc":11262,"Unf":11263,"Unhappy":11264,"Unfold":11265,"Unsheathe":11266,"Answer":11267,"Anointed":11268,"Ġstriving":11269,"Ġstrikes":11270,"Ġstripling":11271,"Ġstrifes":11272,"ildly":11273,"Ġstreams":11274,"Ġhumours":11275,"Ġhumorous":11276,"Ġbelie":11277,"alties":11278,"Ġcourtship":11279,"Ġoverta":11280,"Ġoverboard":11281,"Ġbug":11282,"Ġbubble":11283,"Ġgrateful":11284,"Ġivy":11285,"Ġproveth":11286,"Ġplayers":11287,"Ġplayfellow":11288,"Ġsounding":11289,"Ġdrain":11290,"Ġinstinct":11291,"Ġinstigation":11292,"Ġretail":11293,"Ġthankings":11294,"Ġboil":11295,"holder":11296,"Ġvoid":11297,"Short":11298,"Ġevening":11299,"Ġcurb":11300,"Ġcurds":11301,"Ġcursing":11302,"Ġcurrish":11303,"Ġcurfew":11304,"pecting":11305,"play":11306,"plus":11307,"plight":11308,"plant":11309,"Ġmerciless":11310,"Ġwantons":11311,"Ġrevenues":11312,"Ġassay":11313,"Ġassign":11314,"Ġdoubts":11315,"Ġdoubtless":11316,"Ġtruths":11317,"Ġstrains":11318,"Ġdiscom":11319,"Ġdiscours":11320,"Ġdiscern":11321,"Almost":11322,"Att":11323,"Ġpromises":11324,"Ġpromotions":11325,"ittance":11326,"Ġcracks":11327,"Ġbeaver":11328,"Ġhangmen":11329,"Ġstrangers":11330,"Ġproudly":11331,"Ġdepends":11332,"Ġdeposing":11333,"Ġsecurity":11334,"Ġsecrecy":11335,"Twelve":11336,"compl":11337,"command":11338,"unto":11339,"Ġfreeze":11340,"Ġgreediness":11341,"POMPHEY":11342,"Ġservitor":11343,"Ġdenies":11344,"Ġdenier":11345,"Ġawaking":11346,"Ġawaken":11347,"Ġawaked":11348,"Ġmerits":11349,"Ġmerited":11350,"Ġhorseman":11351,"Herself":11352,"Herald":11353,"Ġwinning":11354,"Ġsupposes":11355,"Ġspoiled":11356,"remacy":11357,"remembered":11358,"Ġdrugs":11359,"Ġdrudge":11360,"Ġdefiance":11361,"Ġdefaced":11362,"Ġunclean":11363,"Looks":11364,"Wash":11365,"Ġaffable":11366,"Ġaffiance":11367,"Ġsinful":11368,"Ġsincerity":11369,"Ġmettle":11370,"Ġmethod":11371,"ringed":11372,"Ġmonastery":11373,"Ġgeneration":11374,"Ġgenerally":11375,"aculate":11376,"Ġsadd":11377,"Ġsaddle":11378,"Ġpurposed":11379,"Ġthroughout":11380,"ictment":11381,"mercies":11382,"Ġchoked":11383,"azz":11384,"ceeding":11385,"Ġplucking":11386,"shot":11387,"Ġlosses":11388,"noble":11389,"Ġcrystal":11390,"Ġentreats":11391,"Ġpersonally":11392,"White":11393,"Ġflying":11394,"Ġfasts":11395,"Ġfaster":11396,"Ġvisits":11397,"ĠLucy":11398,"Ġdispute":11399,"Ġremembering":11400,"Ġorders":11401,"Ġordered":11402,"Ġbolder":11403,"Ġnearness":11404,"Ġtrusted":11405,"Ġinstructed":11406,"Ġinstructions":11407,"without":11408,"Ġtouching":11409,"Ġfoundation":11410,"Ġrunn":11411,"Ġrunning":11412,"Ġrunagate":11413,"Ġwooer":11414,"Ġgrants":11415,"Ġinfidels":11416,"Ġinfallible":11417,"Became":11418,"Spur":11419,"Spread":11420,"gued":11421,"Ġwearisome":11422,"Ġreadiest":11423,"Ġdelivers":11424,"Ġdeliberate":11425,"Ġspeeds":11426,"Ġquarters":11427,"ĠNeap":11428,"ĠNathaniel":11429,"Ġmocks":11430,"Ġmocked":11431,"Ġfurlongs":11432,"Ġfurthest":11433,"Ġforemost":11434,"Ġforego":11435,"Ġforewarn":11436,"Ġfields":11437,"Ġcarver":11438,"Ġcarved":11439,"Ġcarters":11440,"Ġcarriage":11441,"Ġcarbon":11442,"Ġcarcass":11443,"Ġposture":11444,"Ġpostern":11445,"Ġjudged":11446,"Compare":11447,"Cominius":11448,"Ġparle":11449,"Ġparks":11450,"Ġparley":11451,"Ġparcels":11452,"Ġparcel":11453,"Ġparallel":11454,"Ġparagon":11455,"Ġbeholders":11456,"Ġincaged":11457,"Ġincorpor":11458,"Ġrecreation":11459,"Ġdelicious":11460,"Ġdelivered":11461,"Ġworking":11462,"Ġtenor":11463,"Ġbounds":11464,"Ġboundless":11465,"Ġdamask":11466,"Ġopenly":11467,"ĠCapel":11468,"Ġharmful":11469,"Ġguiltiness":11470,"Ġattendance":11471,"Ġattendants":11472,"OPHER":11473,"changea":11474,"Ġvein":11475,"Ġague":11476,"Ġwatching":11477,"Ġfeels":11478,"Ġdishonest":11479,"Ġdistance":11480,"Ġdistaff":11481,"Ġdistrib":11482,"Ġdistilled":11483,"Ġdistinctly":11484,"Ġtribes":11485,"Ġstrengths":11486,"Seeing":11487,"Ġacted":11488,"Ġcoral":11489,"Ġcorpse":11490,"Ġcormor":11491,"Ġstirr":11492,"Untimely":11493,"sub":11494,"supp":11495,"suffic":11496,"Ġsinging":11497,"Ġsingled":11498,"Ġpieced":11499,"Ġcloset":11500,"Ġentering":11501,"Ġbravely":11502,"neither":11503,"vouring":11504,"Ġtype":11505,"Ġwaist":11506,"Ġwaving":11507,"Ġwaft":11508,"Ġfitly":11509,"Ġfitness":11510,"Ġgarter":11511,"Ġgarish":11512,"Ġgarment":11513,"etchy":11514,"Ġweaker":11515,"Ġjests":11516,"Ġplainness":11517,"ĠThree":11518,"Ġskies":11519,"Ġskull":11520,"Ġskins":11521,"Ġsignified":11522,"Ġwiser":11523,"Ġcasting":11524,"Ġforgetfulness":11525,"Ġregent":11526,"Ġvenuto":11527,"Ġrichly":11528,"Ġwedlock":11529,"Ġdugs":11530,"Ġduellist":11531,"Ġmoveable":11532,"Ġbattlements":11533,"sheet":11534,"sheep":11535,"Ġtape":11536,"ouncing":11537,"Ġdirected":11538,"Ġladder":11539,"Ġpaying":11540,"Ġpayment":11541,"Ġgroats":11542,"Ġreduce":11543,"Ġredoubted":11544,"Ġsoftly":11545,"Ġblacker":11546,"Ġextir":11547,"Ġextol":11548,"Ġtroubles":11549,"Ġbeginning":11550,"Ġquarrels":11551,"Requ":11552,"Reward":11553,"Receive":11554,"Rebell":11555,"Ġbarber":11556,"Ġbarne":11557,"Ġdrove":11558,"Ġcrutches":11559,"Ġcrotche":11560,"Ġthrives":11561,"Ġthriving":11562,"arism":11563,"Ġworthless":11564,"Ġprivily":11565,"Ġdangerously":11566,"Ġsighing":11567,"Ġbleared":11568,"Ġinterr":11569,"Ġinterior":11570,"Ġinterpretation":11571,"Ġinterchangea":11572,"Ġundes":11573,"Ġevidence":11574,"Ġvictor":11575,"Ġvictors":11576,"ĠSirrah":11577,"ĠVolsce":11578,"Ġflattery":11579,"Ġdreaded":11580,"Ġdenying":11581,"ipodes":11582,"Ġestablish":11583,"Ġmalady":11584,"Ġmalcontent":11585,"Ġmalapert":11586,"Ġmortals":11587,"Ġbabies":11588,"Ġfraught":11589,"Ġfrailty":11590,"Ġhurry":11591,"Ġhurts":11592,"righted":11593,"spring":11594,"urally":11595,"Ġcrosses":11596,"Ġcrossing":11597,"Ġcowards":11598,"Ġlimed":11599,"Ġpenet":11600,"Ġpenalty":11601,"Ġprotection":11602,"Ġkingdoms":11603,"Ġleading":11604,"Ġlamented":11605,"Ġsuccesses":11606,"Ġsuccessful":11607,"Holding":11608,"spero":11609,"Ġbroil":11610,"Ġbroach":11611,"Ġcleave":11612,"Ġowl":11613,"Ġowed":11614,"Ġowest":11615,"Ġopport":11616,"Ġoppose":11617,"Ġoppress":11618,"Ġgalled":11619,"Ġgallows":11620,"Ġgallops":11621,"Ġforwardness":11622,"Ġangle":11623,"Ġviolation":11624,"antages":11625,"Ġprincip":11626,"Ġapprove":11627,"Ġcomplots":11628,"Ġcompliment":11629,"Ġcomplaints":11630,"butt":11631,"Ġsurfeits":11632,"Ġsurcease":11633,"Ġsurplus":11634,"Ġdestined":11635,"Ġdestroying":11636,"Ġscarf":11637,"Ġscarr":11638,"Ġdeparting":11639,"Ġdeparted":11640,"Ġpossessions":11641,"Conceiving":11642,"Convenient":11643,"Ġbene":11644,"Ġbasely":11645,"Ġbirthright":11646,"Ġfilling":11647,"Ġlabours":11648,"Ġlaboured":11649,"Ġformal":11650,"Ġformally":11651,"Ġeasier":11652,"Ġperformed":11653,"Ġwrites":11654,"Stays":11655,"Abate":11656,"Abbot":11657,"ggar":11658,"ggest":11659,"Ġuttered":11660,"Ġmilder":11661,"Ġwilderness":11662,"reading":11663,"Ġcape":11664,"Ġcavil":11665,"semble":11666,"Ġinsur":11667,"Ġinside":11668,"Ġinsatiate":11669,"Ġinsensible":11670,"Ġshades":11671,"ĠStill":11672,"ĠStephen":11673,"Ġquietly":11674,"Ġquietness":11675,"Ġproceeds":11676,"Ġproceeding":11677,"Ġadmire":11678,"Ġadmits":11679,"Ġadmired":11680,"Ġadmiring":11681,"Ġadmonition":11682,"Margaret":11683,"Ġapish":11684,"Ġapology":11685,"Ġshipp":11686,"Ġshift":11687,"Ġshoot":11688,"Ġmedd":11689,"Ġmedlar":11690,"Ġwalking":11691,"Ġfamed":11692,"Ġhapless":11693,"Ġforswore":11694,"Ġnobody":11695,"Ġfavourites":11696,"Ġblowing":11697,"Ġuncrown":11698,"Ġunconstant":11699,"Ġunknit":11700,"ighbour":11701,"Ġleisurely":11702,"Ġforbids":11703,"counterfeit":11704,"Intends":11705,"Intended":11706,"Ġsorted":11707,"Ġcrupper":11708,"Ġlances":11709,"Ġlisten":11710,"Ġstories":11711,"Ġrefer":11712,"Ġrefresh":11713,"Ġreflect":11714,"Ġseconds":11715,"Ġtemporiz":11716,"Dead":11717,"Enjoy":11718,"Enforced":11719,"Pronounce":11720,"Princes":11721,"Subject":11722,"Success":11723,"Suggest":11724,"Ġtenth":11725,"Ġmutual":11726,"Ġmutually":11727,"Ġmutinies":11728,"Ġmutton":11729,"Ġfinely":11730,"Ġdrowned":11731,"Ġlowest":11732,"Ġpettic":11733,"Ġbended":11734,"Ġbells":11735,"Ġindu":11736,"Ġindust":11737,"Ġinduced":11738,"Ġindignation":11739,"Ġindictment":11740,"Ġstealing":11741,"Ġstealth":11742,"Ġconquered":11743,"Ġproclaimed":11744,"Ġexcused":11745,"Ġexcuses":11746,"Ġdoubled":11747,"Ġdoublets":11748,"Ġwisdoms":11749,"Below":11750,"denly":11751,"Ġmounted":11752,"Ġmountains":11753,"Ġfeign":11754,"Ġfeigned":11755,"Ġcaptives":11756,"Ġpunk":11757,"Ġpuny":11758,"Ġpunished":11759,"Ġhairs":11760,"Ġstudying":11761,"Ġmannerly":11762,"Ġenjoying":11763,"Ġrange":11764,"Ġranks":11765,"Ġabroach":11766,"Ġcontrar":11767,"Ġcontinued":11768,"Ġcontinuance":11769,"Ġdespairing":11770,"Ġstrucken":11771,"Dispose":11772,"Dismiss":11773,"eys":11774,"Ġteaching":11775,"Ġsimpl":11776,"Ġcorns":11777,"Ġcredent":11778,"Ġcredulous":11779,"Ġunprepare":11780,"Ġunpitied":11781,"Ġunparallel":11782,"Ġunwise":11783,"Ġunwieldy":11784,"Ġunwholesome":11785,"Ġunwonted":11786,"Ġprovince":11787,"Ġprovision":11788,"Ġaccounted":11789,"Ġpriests":11790,"Ġguards":11791,"Ġcruelty":11792,"falling":11793,"hearts":11794,"Ġwailing":11795,"Ġdwellest":11796,"Ġpacking":11797,"Ġpackthread":11798,"Ġgavest":11799,"Ġgentleness":11800,"Ġbutcheries":11801,"Ġunsk":11802,"Ġunsway":11803,"Ġunsuspect":11804,"Ġenvying":11805,"Ġridges":11806,"Ġadders":11807,"Ġaddition":11808,"Ġextremities":11809,"Ġbenefactors":11810,"Ġlaughing":11811,"Negle":11812,"Neighbours":11813,"grand":11814,"Ġverily":11815,"Ġveriest":11816,"Ġverified":11817,"Ġverdict":11818,"Ġwreak":11819,"Ġwreaths":11820,"Ġfirmament":11821,"Ġholes":11822,"velling":11823,"Ġincline":11824,"Ġformerly":11825,"Ġeased":11826,"Ġrelent":11827,"Ġdealings":11828,"Ġsportful":11829,"Ġconveyance":11830,"ĠBarnet":11831,"Ġarrive":11832,"Ġunbruised":11833,"ĠHerbert":11834,"ĠHerald":11835,"Ġrooted":11836,"Ġimages":11837,"Ġimagined":11838,"Ġsmoke":11839,"Ġfellowship":11840,"Ġcovering":11841,"Ġacquit":11842,"Ġschoolboy":11843,"ALL":11844,"Black":11845,"Bliss":11846,"Blush":11847,"Bloody":11848,"Desire":11849,"Desires":11850,"Deserved":11851,"Deserve":11852,"Deserves":11853,"Despite":11854,"Exeter":11855,"Examine":11856,"Tutor":11857,"afternoon":11858,"conf":11859,"Ġbaits":11860,"Ġbaited":11861,"Ġdullest":11862,"Ġstables":11863,"ĠAlack":11864,"ĠAlbion":11865,"therea":11866,"therein":11867,"Ġimports":11868,"Ġimportance":11869,"Ġimportuned":11870,"Ado":11871,"Henceforth":11872,"Henceforward":11873,"moreland":11874,"Ġeduc":11875,"Ġfingering":11876,"Ġcustomary":11877,"Ġgrossly":11878,"Ġinformation":11879,"Ġelected":11880,"Ġeagles":11881,"Ġdecreed":11882,"Ġallowing":11883,"Ġallowed":11884,"Ġnecessaries":11885,"Ġknights":11886,"Ġshrill":11887,"Ġsailor":11888,"Ġrobbed":11889,"Ġrobbery":11890,"Ġrocky":11891,"Ġcommendable":11892,"Ġrudely":11893,"Ġassisted":11894,"Ġdelightful":11895,"Ġlanguish":11896,"Ġcircled":11897,"CHRIST":11898,"Resign":11899,"Resolved":11900,"Resolve":11901,"Turns":11902,"active":11903,"dyed":11904,"Ġesp":11905,"Ġespecially":11906,"Ġdurance":11907,"Ġcreep":11908,"Ġcreeping":11909,"Ġnumbering":11910,"Ġlargess":11911,"Ġhidden":11912,"riously":11913,"Ġstarved":11914,"ashion":11915,"Ġdews":11916,"Ġsharper":11917,"Ġconjur":11918,"Ġconjured":11919,"ĠSicils":11920,"Ġchiefly":11921,"Ġconducted":11922,"Ġprotectors":11923,"Ġpublish":11924,"Perform":11925,"appearing":11926,"flies":11927,"flayed":11928,"proof":11929,"ubbering":11930,"Ġerr":11931,"Ġirks":11932,"Ġtortures":11933,"Ġtortoise":11934,"Ġbonds":11935,"Ġdetain":11936,"Ġcambric":11937,"Ġtopmast":11938,"Ġinfectious":11939,"Ġequally":11940,"Ġstored":11941,"Ġsupremacy":11942,"running":11943,"Ġshuts":11944,"Ġsways":11945,"Ġbrooks":11946,"Ġrashly":11947,"Ġrashness":11948,"Ġdisdains":11949,"Ġexcellence":11950,"Ġtransform":11951,"Ġaffects":11952,"Ġaffecting":11953,"Ġaccusers":11954,"Ġpursuing":11955,"Ġpursuivant":11956,"Ġchairs":11957,"Ġdispositions":11958,"Ġconquerors":11959,"Ġspecially":11960,"Knowing":11961,"Prefix":11962,"Retire":11963,"Scorn":11964,"Shake":11965,"large":11966,"parable":11967,"weighs":11968,"Ġtutors":11969,"Ġmurderers":11970,"Ġwoodcock":11971,"Ġballads":11972,"Ġbuds":11973,"Ġfleece":11974,"Ġcensured":11975,"Ġcensures":11976,"Ġcupbearer":11977,"Ġpurest":11978,"Ġbewitch":11979,"Ġmended":11980,"Ġweighing":11981,"queath":11982,"olerable":11983,"Ġargues":11984,"ĠProvost":11985,"ĠProspero":11986,"Ġdissolute":11987,"Ġdissolved":11988,"Ġdissentious":11989,"Ġdissolve":11990,"Ġdissension":11991,"Ġdissolution":11992,"Ġexpected":11993,"Ġadopted":11994,"ĠFlav":11995,"Ġcourageous":11996,"Ġpersuasion":11997,"Ġacceptance":11998,"Ġgroaning":11999,"Ġsolemnly":12000,"bearing":12001,"valued":12002,"Ġtestify":12003,"Ġmagn":12004,"Ġcockle":12005,"Ġcockatri":12006,"Ġhostile":12007,"Ġhunting":12008,"Ġobserve":12009,"Ġpolitic":12010,"Ġrepeat":12011,"ĠCanst":12012,"Ġshuns":12013,"Ġconcern":12014,"Ġqualified":12015,"Ġadversary":12016,"Ġcloven":12017,"Ġcloister":12018,"Ġwhores":12019,"Ġimmod":12020,"Ġpurchased":12021,"Ġimpossib":12022,"Ġmaidenheads":12023,"Ġtemperance":12024,"Ġincreaseth":12025,"Ġcomplaining":12026,"Ġearnestness":12027,"Consort":12028,"Longer":12029,"bridge":12030,"kerchief":12031,"lawfully":12032,"pulous":12033,"ucement":12034,"Ġsquire":12035,"Ġsquared":12036,"Ġsouthward":12037,"Ġmillion":12038,"Ġmillstones":12039,"regia":12040,"Ġfigured":12041,"Ġfurnished":12042,"Ġdigg":12043,"Ġchattering":12044,"Ġparentage":12045,"Ġbefell":12046,"Ġmeantime":12047,"Ġrecomfort":12048,"Ġwillingness":12049,"Ġcombine":12050,"Ġcombined":12051,"Ġswells":12052,"ĠBehold":12053,"Ġprovoke":12054,"ĠAdrian":12055,"Ġconsidering":12056,"Ġcompanions":12057,"Strive":12058,"Ġbrawls":12059,"Ġbuilds":12060,"Ġbuildeth":12061,"Ġintelligen":12062,"Ġrecorded":12063,"Ġwaiting":12064,"Ġgarlands":12065,"Ġforbearance":12066,"Ġopposers":12067,"Ġfamously":12068,"Supposing":12069,"ĠConspirators":12070,"Account":12071,"Keeps":12072,"desire":12073,"shalt":12074,"shaped":12075,"wearied":12076,"Ġingrateful":12077,"Ġingratitude":12078,"Ġingenious":12079,"Ġaptly":12080,"Ġsalve":12081,"Ġsalutation":12082,"Ġmultip":12083,"Ġmultitud":12084,"Ġfunctions":12085,"Ġfuneral":12086,"Ġdrive":12087,"Ġpotent":12088,"Ġpotency":12089,"Ġinquired":12090,"Ġmelting":12091,"Ġmelted":12092,"Ġforsaken":12093,"Ġstinging":12094,"Ġstoutness":12095,"ĠLeicester":12096,"Softly":12097,"ĠDeucal":12098,"ĠDecember":12099,"Ġwrinkle":12100,"Ġwrinkles":12101,"Ġrusty":12102,"Ġcharacters":12103,"Ġsmells":12104,"Ġbracelet":12105,"Ġsecurely":12106,"Ġafflicted":12107,"shoulder":12108,"Ġagreeing":12109,"Ġcorrect":12110,"Ġprettily":12111,"Ġshields":12112,"Ġrejoicing":12113,"Condition":12114,"Draws":12115,"Flower":12116,"Flatter":12117,"Immediate":12118,"Quit":12119,"Rivers":12120,"Sometimes":12121,"access":12122,"bodied":12123,"faith":12124,"footed":12125,"longeth":12126,"monger":12127,"news":12128,"thank":12129,"warm":12130,"Ġmiracle":12131,"Ġwidower":12132,"Ġwestward":12133,"hands":12134,"Ġbuckler":12135,"Ġdifferent":12136,"Ġhorns":12137,"Ġgrudge":12138,"Ġsteer":12139,"Ġsticks":12140,"Ġreceiving":12141,"Ġdeclined":12142,"Ġdeclines":12143,"Ġdeclining":12144,"Ġshamest":12145,"Ġshamef":12146,"Ġsucceeding":12147,"Ġsucceeders":12148,"Ġfactor":12149,"Ġfawns":12150,"Ġneglected":12151,"Ġvariable":12152,"Ġvillanous":12153,"Ġvolumes":12154,"Ġshrieks":12155,"Ġmanifested":12156,"Ġunwillingly":12157,"ĠVenus":12158,"ĠTarquin":12159,"Ġscandalous":12160,"Ġcarelessly":12161,"Ġgratify":12162,"Ġgratulate":12163,"Ġcurtains":12164,"Ġcrafts":12165,"Ġprophetess":12166,"Ġsubstitutes":12167,"Ġrevolted":12168,"Ġconcealment":12169,"Awake":12170,"Courageous":12171,"URE":12172,"cestershire":12173,"pretty":12174,"tender":12175,"Ġtouches":12176,"Ġtrodden":12177,"Ġtigers":12178,"Ġtails":12179,"Ġmethoughts":12180,"Ġbonnet":12181,"Ġfixed":12182,"Ġdateless":12183,"Ġnettles":12184,"Ġnicely":12185,"Ġlucky":12186,"Ġluckless":12187,"Ġpedigree":12188,"Ġpageant":12189,"celsa":12190,"Ġstomachs":12191,"Ġspectators":12192,"ĠGreek":12193,"Ġornament":12194,"ĠScroop":12195,"Ġarrested":12196,"Ġunstain":12197,"Ġunfelt":12198,"Ġwormwood":12199,"Ġengine":12200,"Ġdisgracious":12201,"Ġbeguile":12202,"Ġbegetting":12203,"Ġcollected":12204,"Ġdepending":12205,"Ġmonarchy":12206,"Ġsufficiency":12207,"Ġestimate":12208,"Ġsacrificed":12209,"Plays":12210,"Ġrankle":12211,"Ġcoverture":12212,"Ġapprehends":12213,"Ġmoralize":12214,"Adding":12215,"Engage":12216,"Falsely":12217,"Namely":12218,"Wrath":12219,"conscience":12220,"friend":12221,"prayers":12222,"winged":12223,"Ġtackle":12224,"Ġaudience":12225,"Ġaudible":12226,"Ġsedition":12227,"Ġsedges":12228,"Ġsessions":12229,"Ġmourner":12230,"Ġmoulded":12231,"Ġbruising":12232,"Ġbolt":12233,"Ġbolted":12234,"Ġfinest":12235,"Ġfinish":12236,"Ġfeverous":12237,"Ġlouring":12238,"Ġpillow":12239,"Ġpalmers":12240,"ĠIniquity":12241,"Ġgapes":12242,"Ġinvite":12243,"Ġdemi":12244,"Ġdemesnes":12245,"Ġanchors":12246,"Ġshrug":12247,"ĠEmperor":12248,"Ġshelves":12249,"Ġgossip":12250,"Ġhoarse":12251,"ĠWelshman":12252,"Ġencamp":12253,"Ġdescant":12254,"Ġdescried":12255,"Ġslippery":12256,"Ġpreferment":12257,"perienced":12258,"Ġlectures":12259,"Ġtraveller":12260,"Ġtrencher":12261,"Ġcopy":12262,"Ġcopest":12263,"Ġattainder":12264,"Ġprompts":12265,"Ġcramps":12266,"Ġdivorced":12267,"Ġembraces":12268,"Ġinsolent":12269,"Ġobsequious":12270,"Ġtestimon":12271,"Ġneglecting":12272,"Ġheralds":12273,"Accept":12274,"Caesar":12275,"Divine":12276,"Gramercies":12277,"Relent":12278,"besides":12279,"locks":12280,"missive":12281,"obst":12282,"sentenced":12283,"tino":12284,"tongues":12285,"tongued":12286,"whom":12287,"Ġmasks":12288,"Ġbottle":12289,"Ġbottled":12290,"Ġfrequent":12291,"Ġfountain":12292,"Ġdoting":12293,"Ġdotard":12294,"enedicite":12295,"Ġlingering":12296,"Ġthwack":12297,"Ġpanting":12298,"Ġpictures":12299,"Ġgusts":12300,"Ġstaggers":12301,"Ġrevived":12302,"Ġassembly":12303,"Ġvials":12304,"Ġunlikely":12305,"ĠWestmoreland":12306,"Ġalarum":12307,"Ġalarums":12308,"Ġexceeds":12309,"Ġclerk":12310,"Ġtrimm":12311,"Ġcontrive":12312,"Ġcontrived":12313,"Ġeverlastingly":12314,"Ġpeerless":12315,"Ġbestrid":12316,"Ġbestride":12317,"Ġaccompanied":12318,"Ġcompounded":12319,"Ġchampions":12320,"Ġbrands":12321,"Ġconfederates":12322,"Ġmischiefs":12323,"Ġpatroness":12324,"Ġcrabbed":12325,"Ġdistraught":12326,"Ġcrimson":12327,"Ġinterrupted":12328,"Ġinsinuating":12329,"Ġunlucky":12330,"Ġmagistrates":12331,"Ġstewardship":12332,"Ġunwillingness":12333,"Ġsurprise":12334,"Ġfantastic":12335,"Affliction":12336,"Boldly":12337,"Endured":12338,"Present":12339,"Sicinius":12340,"Sicilia":12341,"burthen":12342,"court":12343,"country":12344,"countenance":12345,"judged":12346,"knock":12347,"malice":12348,"occup":12349,"occasion":12350,"opsa":12351,"phin":12352,"presently":12353,"points":12354,"speech":12355,"Ġireful":12356,"Ġtumbled":12357,"Ġmuffle":12358,"Ġmuffled":12359,"Ġfetter":12360,"Ġfulfil":12361,"Ġdominions":12362,"Ġdedicate":12363,"Ġdieted":12364,"Ġcushion":12365,"Ġcushions":12366,"strains":12367,"Ġgazing":12368,"Ġgrumbling":12369,"Ġliquor":12370,"Ġliquid":12371,"Ġdefects":12372,"Ġdoctors":12373,"Ġdoctrine":12374,"Ġbutterfly":12375,"Ġsequel":12376,"Ġsuggested":12377,"thwart":12378,"thwack":12379,"Ġanswers":12380,"Ġanswered":12381,"Ġsparks":12382,"Ġnegligence":12383,"Ġnegligent":12384,"ĠRoger":12385,"ĠRobert":12386,"Ġviand":12387,"Ġviper":12388,"Ġamendment":12389,"ĠBeseech":12390,"ĠBesides":12391,"Ġarguing":12392,"Ġargued":12393,"Ġarbitrate":12394,"Ġgrafted":12395,"Ġprogress":12396,"ĠArgier":12397,"ĠArchbishop":12398,"Ġabstinence":12399,"Ġabode":12400,"Ġexactly":12401,"Ġexperienced":12402,"Ġriddle":12403,"Ġperdition":12404,"Ġperfume":12405,"Ġperfumed":12406,"Ġtradesmen":12407,"Ġscruple":12408,"Ġappointment":12409,"Ġchapel":12410,"Ġchests":12411,"Ġimpartial":12412,"Ġimpudent":12413,"Ġboatswain":12414,"Ġstraitly":12415,"Ġprofanation":12416,"Ġdishonours":12417,"Ġembassage":12418,"ĠChristophero":12419,"Ġadmiral":12420,"Ġindirectly":12421,"Ġfeatly":12422,"Ġcontradict":12423,"Ġcontradiction":12424,"Ġholiday":12425,"Ġholidame":12426,"Ġreligion":12427,"Ġreligious":12428,"ĠFlorent":12429,"ĠFlorence":12430,"Ġgreyhound":12431,"Ġgreyhounds":12432,"Ġsyllable":12433,"Ġsyllables":12434,"Ġsuperfluous":12435,"Ġsuperfluity":12436,"Ġdisobedience":12437,"Ġdisobedient":12438,"Ġsinews":12439,"Ġcuckolds":12440,"Bestride":12441,"Chide":12442,"Doubly":12443,"Drop":12444,"Eleven":12445,"Golden":12446,"Haply":12447,"Nightly":12448,"Pitchers":12449,"Saddle":12450,"Self":12451,"Slander":12452,"Trans":12453,"Tremble":12454,"often":12455,"silver":12456,"service":12457,"ville":12458,"winds":12459,"ĠĠĊ":12460,"Ġtilth":12461,"Ġaugment":12462,"Ġausterity":12463,"Ġmotive":12464,"Ġmingle":12465,"Ġmassacre":12466,"Ġwrapt":12467,"Ġbaleful":12468,"Ġbounteous":12469,"Ġcedar":12470,"Ġcasque":12471,"Ġcelebr":12472,"Ġlechery":12473,"Ġthrall":12474,"Ġthreshold":12475,"Ġostentation":12476,"Ġocean":12477,"Ġpheasant":12478,"Ġpirate":12479,"Ġpuling":12480,"Ġpensive":12481,"Ġpalsied":12482,"Ġglean":12483,"Ġgilded":12484,"Ġgorgeous":12485,"Ġbehove":12486,"Ġhabiliments":12487,"lexander":12488,"Ġfornication":12489,"Ġeggs":12490,"Ġelbow":12491,"Ġewes":12492,"Ġstalls":12493,"Ġstinted":12494,"Ġkernels":12495,"Ġreversion":12496,"Ġreleased":12497,"Ġdolour":12498,"Ġsemblance":12499,"Ġseventeen":12500,"Ġsurety":12501,"Ġherdsmen":12502,"Ġspotless":12503,"ĠCytherea":12504,"ĠCotus":12505,"Ġvestal":12506,"Ġwheresoe":12507,"icanor":12508,"Ġconverts":12509,"Ġconversation":12510,"Ġconvented":12511,"Ġblasphem":12512,"ĠGuildhall":12513,"Ġcannibals":12514,"ershades":12515,"ĠBreton":12516,"Ġungrateful":12517,"Ġungracious":12518,"Ġuniversal":12519,"Ġunthrifty":12520,"Ġjolly":12521,"Ġproverb":12522,"ĠPilate":12523,"ĠPriami":12524,"Ġplenteous":12525,"Ġenrolled":12526,"Ġoutstret":12527,"ĠAfric":12528,"Ġdiscipline":12529,"Ġexhales":12530,"Ġripest":12531,"Ġadulter":12532,"Ġpresumption":12533,"Ġprescription":12534,"Ġcontempl":12535,"ĠJudas":12536,"Ġendeavours":12537,"Prosperity":12538,"Ġtragedy":12539,"Stirr":12540,"Ġbraggart":12541,"Ġglistering":12542,"Ġmiscarried":12543,"Ġundertaking":12544,"Unworthy":12545,"Ġstreaks":12546,"Ġattentive":12547,"Ġwelcomed":12548,"Ġstrangeness":12549,"comfortable":12550,"Ġtemperately":12551,"Ġinfluences":12552,"Ġquarrelling":12553,"Ġexecuting":12554,"Ġparchment":12555,"Ġvehement":12556,"Ġstirrup":12557,"ĠThinkest":12558,"Ġbarbarism":12559,"Ġcradle":12560,"Ġexpostulate":12561,"spoken":12562,"Plainly":12563,"Ġcauser":12564,"Ġtemporal":12565,"Environed":12566,"Ġcounterpoised":12567,"Despised":12568,"Ġwagoner":12569,"Ġescaped":12570,"apparell":12571,"Ġvanquish":12572,"Ġtransgression":12573,"Ġbasilisk":12574,"Ġambassador":12575,"execution":12576,"Ġsympathy":12577,"Ġdifferences":12578,"Ġunreverent":12579,"Ġencouragement":12580,"Ġmasquers":12581,"Ġclergymen":12582,"Erroneous":12583,"ĠAmazonian":12584,"FRANCISCA":12585,"dangerous":12586,"Ġtumultuous":12587,"Ġsulphurous":12588,"Ġviolets":12589,"Bootless":12590,"Change":12591,"CARDINAL":12592,"Crowns":12593,"Culling":12594,"Certainly":12595,"Counsel":12596,"Drawn":12597,"Delay":12598,"Laugh":12599,"Monday":12600,"Mercutio":12601,"Montague":12602,"Marshal":12603,"Poison":12604,"Pompey":12605,"Pretty":12606,"Sheriff":12607,"Thieves":12608,"Tendering":12609,"TITUS":12610,"Visit":12611,"Vincetino":12612,"better":12613,"delivered":12614,"pillars":12615,"persuasion":12616,"Ġtarget":12617,"Ġaediles":12618,"Ġautumn":12619,"Ġauspicious":12620,"Ġscepter":12621,"Ġsouthern":12622,"Ġmalmsey":12623,"Ġmattock":12624,"instru":12625,"Ġbisson":12626,"Ġbitterest":12627,"Ġfourscore":12628,"Ġdaffodils":12629,"Ġcodpiece":12630,"Ġcottage":12631,"Ġcaterpillars":12632,"Ġcypress":12633,"Ġnimbly":12634,"Ġhuntsmen":12635,"Ġhypoc":12636,"Ġponderous":12637,"Ġphrase":12638,"annibal":12639,"Ġgasping":12640,"Ġgeese":12641,"Ġgillyvors":12642,"Ġghastly":12643,"Ġindex":12644,"Ġinexorable":12645,"Ġinhuman":12646,"Ġhaggard":12647,"learned":12648,"ithmetic":12649,"Ġwealthily":12650,"Ġeastern":12651,"Ġstamps":12652,"Ġstatesman":12653,"Ġlibrary":12654,"Ġsprang":12655,"ĠCheerly":12656,"Ġnephew":12657,"ĠRedeemer":12658,"Ġcomforter":12659,"ĠMortimer":12660,"ĠMONTAGUE":12661,"ĠMamillius":12662,"ĠMEASURE":12663,"ĠMiranda":12664,"ĠGloucestershire":12665,"ĠLibya":12666,"Ġorisons":12667,"ĠSuffolk":12668,"ĠBERKELEY":12669,"Ġarrogance":12670,"Ġlethargy":12671,"Ġunfortunate":12672,"Ġunspeakable":12673,"orthampton":12674,"ĠVarrius":12675,"Ġprolix":12676,"AUGHAN":12677,"Ġencompass":12678,"Ġencounters":12679,"Ġfrivolous":12680,"ĠAbraham":12681,"ĠAutolycus":12682,"ĠYorkshire":12683,"Ġexamples":12684,"agabond":12685,"Ġribbons":12686,"Ġpredominant":12687,"Ġprecipitation":12688,"Ġprenzie":12689,"Ġpredecessors":12690,"ĠFerdinand":12691,"Prodigious":12692,"beguile":12693,"Ġcockerel":12694,"Ġimpregnable":12695,"Ġpatrimony":12696,"Ġdiscourses":12697,"Ġaffianced":12698,"ĠNeapolitan":12699,"Ġincorporate":12700,"Ġcormorant":12701,"Ġcrotchets":12702,"Ġinterchangeably":12703,"Ġprincipal":12704,"Ġpetticoat":12705,"Ġunprepared":12706,"Ġunsuspected":12707,"Ġschoolboys":12708,"Ġeducation":12709,"CHRISTOPHER":12710,"ĠFlavius":12711,"Ġcockatrice":12712,"ĠDeucalion":12713}